// Auto-generated by scripts/export_pb_demo_data.py; do not edit.
#include "neural_tts_demo_data.h"

alignas(16) const unsigned char g_pb_decoder_model[449032] = {
  28, 0, 0, 0, 84, 70, 76, 51, 20, 0, 32, 0, 28, 0, 24, 0, 20, 0, 16, 0,
  12, 0, 0, 0, 8, 0, 4, 0, 20, 0, 0, 0, 28, 0, 0, 0, 132, 0, 0, 0,
  224, 0, 0, 0, 104, 45, 6, 0, 120, 45, 6, 0, 120, 217, 6, 0, 3, 0, 0, 0,
  1, 0, 0, 0, 4, 0, 0, 0, 22, 201, 249, 255, 12, 0, 0, 0, 28, 0, 0, 0,
  60, 0, 0, 0, 15, 0, 0, 0, 115, 101, 114, 118, 105, 110, 103, 95, 100, 101, 102, 97,
  117, 108, 116, 0, 1, 0, 0, 0, 4, 0, 0, 0, 148, 255, 255, 255, 86, 0, 0, 0,
  4, 0, 0, 0, 8, 0, 0, 0, 111, 117, 116, 112, 117, 116, 95, 48, 0, 0, 0, 0,
  1, 0, 0, 0, 4, 0, 0, 0, 142, 211, 249, 255, 4, 0, 0, 0, 6, 0, 0, 0,
  97, 114, 103, 115, 95, 48, 0, 0, 2, 0, 0, 0, 56, 0, 0, 0, 4, 0, 0, 0,
  216, 255, 255, 255, 34, 0, 0, 0, 4, 0, 0, 0, 23, 0, 0, 0, 107, 101, 101, 112,
  95, 115, 116, 97, 98, 108, 101, 104, 108, 111, 95, 99, 111, 110, 115, 116, 97, 110, 116, 0,
  8, 0, 12, 0, 8, 0, 4, 0, 8, 0, 0, 0, 33, 0, 0, 0, 4, 0, 0, 0,
  19, 0, 0, 0, 109, 105, 110, 95, 114, 117, 110, 116, 105, 109, 101, 95, 118, 101, 114, 115,
  105, 111, 110, 0, 39, 0, 0, 0, 132, 44, 6, 0, 252, 43, 6, 0, 100, 43, 6, 0,
  212, 42, 6, 0, 68, 42, 6, 0, 188, 41, 6, 0, 172, 38, 6, 0, 156, 35, 6, 0,
  140, 246, 5, 0, 124, 198, 5, 0, 108, 118, 5, 0, 76, 118, 5, 0, 48, 118, 5, 0,
  32, 43, 5, 0, 0, 43, 5, 0, 228, 42, 5, 0, 212, 163, 4, 0, 180, 163, 4, 0,
  152, 163, 4, 0, 136, 67, 1, 0, 104, 67, 1, 0, 76, 67, 1, 0, 60, 35, 0, 0,
  28, 35, 0, 0, 0, 35, 0, 0, 224, 34, 0, 0, 196, 34, 0, 0, 164, 34, 0, 0,
  132, 34, 0, 0, 116, 32, 0, 0, 132, 30, 0, 0, 116, 18, 0, 0, 88, 18, 0, 0,
  56, 18, 0, 0, 36, 18, 0, 0, 20, 16, 0, 0, 4, 14, 0, 0, 20, 12, 0, 0,
  4, 0, 0, 0, 162, 212, 249, 255, 4, 0, 0, 0, 0, 12, 0, 0, 0, 0, 0, 0,
  0, 0, 0, 0, 0, 0, 0, 0, 0, 0, 0, 0, 0, 0, 0, 0, 0, 0, 0, 0,
  0, 0, 0, 0, 0, 0, 0, 0, 0, 0, 0, 0, 0, 0, 0, 0, 0, 0, 0, 0,
  0, 0, 0, 0, 0, 0, 0, 0, 0, 0, 0, 0, 0, 0, 0, 0, 0, 0, 0, 0,
  0, 0, 0, 0, 0, 0, 0, 0, 0, 0, 0, 0, 0, 0, 0, 0, 0, 0, 0, 0,
  0, 0, 0, 0, 0, 0, 0, 0, 0, 0, 0, 0, 0, 0, 0, 0, 0, 0, 0, 0,
  0, 0, 0, 0, 0, 0, 0, 0, 0, 0, 0, 0, 0, 0, 0, 0, 0, 0, 0, 0,
  0, 0, 0, 0, 0, 0, 0, 0, 0, 0, 0, 0, 0, 0, 0, 0, 0, 0, 0, 0,
  0, 0, 0, 0, 0, 0, 0, 0, 0, 0, 0, 0, 0, 0, 0, 0, 0, 0, 0, 0,
  0, 0, 0, 0, 0, 0, 0, 0, 0, 0, 0, 0, 0, 0, 0, 0, 0, 0, 0, 0,
  0, 0, 0, 0, 0, 0, 0, 0, 0, 0, 0, 0, 0, 0, 0, 0, 0, 0, 0, 0,
  0, 0, 0, 0, 0, 0, 0, 0, 0, 0, 0, 0, 0, 0, 0, 0, 0, 0, 0, 0,
  0, 0, 0, 0, 0, 0, 0, 0, 0, 0, 0, 0, 0, 0, 0, 0, 0, 0, 0, 0,
  0, 0, 0, 0, 0, 0, 0, 0, 0, 0, 0, 0, 0, 0, 0, 0, 0, 0, 0, 0,
  0, 0, 0, 0, 0, 0, 0, 0, 0, 0, 0, 0, 0, 0, 0, 0, 0, 0, 0, 0,
  0, 0, 0, 0, 0, 0, 0, 0, 0, 0, 0, 0, 0, 0, 0, 0, 0, 0, 0, 0,
  0, 0, 0, 0, 0, 0, 0, 0, 0, 0, 0, 0, 0, 0, 0, 0, 0, 0, 0, 0,
  0, 0, 0, 0, 0, 0, 0, 0, 0, 0, 0, 0, 0, 0, 0, 0, 0, 0, 0, 0,
  0, 0, 0, 0, 0, 0, 0, 0, 0, 0, 0, 0, 0, 0, 0, 0, 0, 0, 0, 0,
  0, 0, 0, 0, 0, 0, 0, 0, 0, 0, 0, 0, 0, 0, 0, 0, 0, 0, 0, 0,
  0, 0, 0, 0, 0, 0, 0, 0, 0, 0, 0, 0, 0, 0, 0, 0, 0, 0, 0, 0,
  0, 0, 0, 0, 0, 0, 0, 0, 0, 0, 0, 0, 0, 0, 0, 0, 0, 0, 0, 0,
  0, 0, 0, 0, 0, 0, 0, 0, 0, 0, 0, 0, 0, 0, 0, 0, 0, 0, 0, 0,
  0, 0, 0, 0, 0, 0, 0, 0, 0, 0, 0, 0, 0, 0, 0, 0, 0, 0, 0, 0,
  0, 0, 0, 0, 0, 0, 0, 0, 0, 0, 0, 0, 0, 0, 0, 0, 0, 0, 0, 0,
  0, 0, 0, 0, 0, 0, 0, 0, 0, 0, 0, 0, 0, 0, 0, 0, 0, 0, 0, 0,
  0, 0, 0, 0, 0, 0, 0, 0, 0, 0, 0, 0, 0, 0, 0, 0, 0, 0, 0, 0,
  0, 0, 0, 0, 0, 0, 0, 0, 0, 0, 0, 0, 0, 0, 0, 0, 0, 0, 0, 0,
  0, 0, 0, 0, 0, 0, 0, 0, 0, 0, 0, 0, 0, 0, 0, 0, 0, 0, 0, 0,
  0, 0, 0, 0, 0, 0, 0, 0, 0, 0, 0, 0, 0, 0, 0, 0, 0, 0, 0, 0,
  0, 0, 0, 0, 0, 0, 0, 0, 0, 0, 0, 0, 0, 0, 0, 0, 0, 0, 0, 0,
  0, 0, 0, 0, 0, 0, 0, 0, 0, 0, 0, 0, 0, 0, 0, 0, 0, 0, 0, 0,
  0, 0, 0, 0, 0, 0, 0, 0, 0, 0, 0, 0, 0, 0, 0, 0, 0, 0, 0, 0,
  0, 0, 0, 0, 0, 0, 0, 0, 0, 0, 0, 0, 0, 0, 0, 0, 0, 0, 0, 0,
  0, 0, 0, 0, 0, 0, 0, 0, 0, 0, 0, 0, 0, 0, 0, 0, 0, 0, 0, 0,
  0, 0, 0, 0, 0, 0, 0, 0, 0, 0, 0, 0, 0, 0, 0, 0, 0, 0, 0, 0,
  0, 0, 0, 0, 0, 0, 0, 0, 0, 0, 0, 0, 0, 0, 0, 0, 0, 0, 0, 0,
  0, 0, 0, 0, 0, 0, 0, 0, 0, 0, 0, 0, 0, 0, 0, 0, 0, 0, 0, 0,
  0, 0, 0, 0, 0, 0, 0, 0, 0, 0, 0, 0, 0, 0, 0, 0, 0, 0, 0, 0,
  0, 0, 0, 0, 0, 0, 0, 0, 0, 0, 0, 0, 0, 0, 0, 0, 0, 0, 0, 0,
  0, 0, 0, 0, 0, 0, 0, 0, 0, 0, 0, 0, 0, 0, 0, 0, 0, 0, 0, 0,
  0, 0, 0, 0, 0, 0, 0, 0, 0, 0, 0, 0, 0, 0, 0, 0, 0, 0, 0, 0,
  0, 0, 0, 0, 0, 0, 0, 0, 0, 0, 0, 0, 0, 0, 0, 0, 0, 0, 0, 0,
  0, 0, 0, 0, 0, 0, 0, 0, 0, 0, 0, 0, 0, 0, 0, 0, 0, 0, 0, 0,
  0, 0, 0, 0, 0, 0, 0, 0, 0, 0, 0, 0, 0, 0, 0, 0, 0, 0, 0, 0,
  0, 0, 0, 0, 0, 0, 0, 0, 0, 0, 0, 0, 0, 0, 0, 0, 0, 0, 0, 0,
  0, 0, 0, 0, 0, 0, 0, 0, 0, 0, 0, 0, 0, 0, 0, 0, 0, 0, 0, 0,
  0, 0, 0, 0, 0, 0, 0, 0, 0, 0, 0, 0, 0, 0, 0, 0, 0, 0, 0, 0,
  0, 0, 0, 0, 0, 0, 0, 0, 0, 0, 0, 0, 0, 0, 0, 0, 0, 0, 0, 0,
  0, 0, 0, 0, 0, 0, 0, 0, 0, 0, 0, 0, 0, 0, 0, 0, 0, 0, 0, 0,
  0, 0, 0, 0, 0, 0, 0, 0, 0, 0, 0, 0, 0, 0, 0, 0, 0, 0, 0, 0,
  0, 0, 0, 0, 0, 0, 0, 0, 0, 0, 0, 0, 0, 0, 0, 0, 0, 0, 0, 0,
  0, 0, 0, 0, 0, 0, 0, 0, 0, 0, 0, 0, 0, 0, 0, 0, 0, 0, 0, 0,
  0, 0, 0, 0, 0, 0, 0, 0, 0, 0, 0, 0, 0, 0, 0, 0, 0, 0, 0, 0,
  0, 0, 0, 0, 0, 0, 0, 0, 0, 0, 0, 0, 0, 0, 0, 0, 0, 0, 0, 0,
  0, 0, 0, 0, 0, 0, 0, 0, 0, 0, 0, 0, 0, 0, 0, 0, 0, 0, 0, 0,
  0, 0, 0, 0, 0, 0, 0, 0, 0, 0, 0, 0, 0, 0, 0, 0, 0, 0, 0, 0,
  0, 0, 0, 0, 0, 0, 0, 0, 0, 0, 0, 0, 0, 0, 0, 0, 0, 0, 0, 0,
  0, 0, 0, 0, 0, 0, 0, 0, 0, 0, 0, 0, 0, 0, 0, 0, 0, 0, 0, 0,
  0, 0, 0, 0, 0, 0, 0, 0, 0, 0, 0, 0, 0, 0, 0, 0, 0, 0, 0, 0,
  0, 0, 0, 0, 0, 0, 0, 0, 0, 0, 0, 0, 0, 0, 0, 0, 0, 0, 0, 0,
  0, 0, 0, 0, 0, 0, 0, 0, 0, 0, 0, 0, 0, 0, 0, 0, 0, 0, 0, 0,
  0, 0, 0, 0, 0, 0, 0, 0, 0, 0, 0, 0, 0, 0, 0, 0, 0, 0, 0, 0,
  0, 0, 0, 0, 0, 0, 0, 0, 0, 0, 0, 0, 0, 0, 0, 0, 0, 0, 0, 0,
  0, 0, 0, 0, 0, 0, 0, 0, 0, 0, 0, 0, 0, 0, 0, 0, 0, 0, 0, 0,
  0, 0, 0, 0, 0, 0, 0, 0, 0, 0, 0, 0, 0, 0, 0, 0, 0, 0, 0, 0,
  0, 0, 0, 0, 0, 0, 0, 0, 0, 0, 0, 0, 0, 0, 0, 0, 0, 0, 0, 0,
  0, 0, 0, 0, 0, 0, 0, 0, 0, 0, 0, 0, 0, 0, 0, 0, 0, 0, 0, 0,
  0, 0, 0, 0, 0, 0, 0, 0, 0, 0, 0, 0, 0, 0, 0, 0, 0, 0, 0, 0,
  0, 0, 0, 0, 0, 0, 0, 0, 0, 0, 0, 0, 0, 0, 0, 0, 0, 0, 0, 0,
  0, 0, 0, 0, 0, 0, 0, 0, 0, 0, 0, 0, 0, 0, 0, 0, 0, 0, 0, 0,
  0, 0, 0, 0, 0, 0, 0, 0, 0, 0, 0, 0, 0, 0, 0, 0, 0, 0, 0, 0,
  0, 0, 0, 0, 0, 0, 0, 0, 0, 0, 0, 0, 0, 0, 0, 0, 0, 0, 0, 0,
  0, 0, 0, 0, 0, 0, 0, 0, 0, 0, 0, 0, 0, 0, 0, 0, 0, 0, 0, 0,
  0, 0, 0, 0, 0, 0, 0, 0, 0, 0, 0, 0, 0, 0, 0, 0, 0, 0, 0, 0,
  0, 0, 0, 0, 0, 0, 0, 0, 0, 0, 0, 0, 0, 0, 0, 0, 0, 0, 0, 0,
  0, 0, 0, 0, 0, 0, 0, 0, 0, 0, 0, 0, 0, 0, 0, 0, 0, 0, 0, 0,
  0, 0, 0, 0, 0, 0, 0, 0, 0, 0, 0, 0, 0, 0, 0, 0, 0, 0, 0, 0,
  0, 0, 0, 0, 0, 0, 0, 0, 0, 0, 0, 0, 0, 0, 0, 0, 0, 0, 0, 0,
  0, 0, 0, 0, 0, 0, 0, 0, 0, 0, 0, 0, 0, 0, 0, 0, 0, 0, 0, 0,
  0, 0, 0, 0, 0, 0, 0, 0, 0, 0, 0, 0, 0, 0, 0, 0, 0, 0, 0, 0,
  0, 0, 0, 0, 0, 0, 0, 0, 0, 0, 0, 0, 0, 0, 0, 0, 0, 0, 0, 0,
  0, 0, 0, 0, 0, 0, 0, 0, 0, 0, 0, 0, 0, 0, 0, 0, 0, 0, 0, 0,
  0, 0, 0, 0, 0, 0, 0, 0, 0, 0, 0, 0, 0, 0, 0, 0, 0, 0, 0, 0,
  0, 0, 0, 0, 0, 0, 0, 0, 0, 0, 0, 0, 0, 0, 0, 0, 0, 0, 0, 0,
  0, 0, 0, 0, 0, 0, 0, 0, 0, 0, 0, 0, 0, 0, 0, 0, 0, 0, 0, 0,
  0, 0, 0, 0, 0, 0, 0, 0, 0, 0, 0, 0, 0, 0, 0, 0, 0, 0, 0, 0,
  0, 0, 0, 0, 0, 0, 0, 0, 0, 0, 0, 0, 0, 0, 0, 0, 0, 0, 0, 0,
  0, 0, 0, 0, 0, 0, 0, 0, 0, 0, 0, 0, 0, 0, 0, 0, 0, 0, 0, 0,
  0, 0, 0, 0, 0, 0, 0, 0, 0, 0, 0, 0, 0, 0, 0, 0, 0, 0, 0, 0,
  0, 0, 0, 0, 0, 0, 0, 0, 0, 0, 0, 0, 0, 0, 0, 0, 0, 0, 0, 0,
  0, 0, 0, 0, 0, 0, 0, 0, 0, 0, 0, 0, 0, 0, 0, 0, 0, 0, 0, 0,
  0, 0, 0, 0, 0, 0, 0, 0, 0, 0, 0, 0, 0, 0, 0, 0, 0, 0, 0, 0,
  0, 0, 0, 0, 0, 0, 0, 0, 0, 0, 0, 0, 0, 0, 0, 0, 0, 0, 0, 0,
  0, 0, 0, 0, 0, 0, 0, 0, 0, 0, 0, 0, 0, 0, 0, 0, 0, 0, 0, 0,
  0, 0, 0, 0, 0, 0, 0, 0, 0, 0, 0, 0, 0, 0, 0, 0, 0, 0, 0, 0,
  0, 0, 0, 0, 0, 0, 0, 0, 0, 0, 0, 0, 0, 0, 0, 0, 0, 0, 0, 0,
  0, 0, 0, 0, 0, 0, 0, 0, 0, 0, 0, 0, 0, 0, 0, 0, 0, 0, 0, 0,
  0, 0, 0, 0, 0, 0, 0, 0, 0, 0, 0, 0, 0, 0, 0, 0, 0, 0, 0, 0,
  0, 0, 0, 0, 0, 0, 0, 0, 0, 0, 0, 0, 0, 0, 0, 0, 0, 0, 0, 0,
  0, 0, 0, 0, 0, 0, 0, 0, 0, 0, 0, 0, 0, 0, 0, 0, 0, 0, 0, 0,
  0, 0, 0, 0, 0, 0, 0, 0, 0, 0, 0, 0, 0, 0, 0, 0, 0, 0, 0, 0,
  0, 0, 0, 0, 0, 0, 0, 0, 0, 0, 0, 0, 0, 0, 0, 0, 0, 0, 0, 0,
  0, 0, 0, 0, 0, 0, 0, 0, 0, 0, 0, 0, 0, 0, 0, 0, 0, 0, 0, 0,
  0, 0, 0, 0, 0, 0, 0, 0, 0, 0, 0, 0, 0, 0, 0, 0, 0, 0, 0, 0,
  0, 0, 0, 0, 0, 0, 0, 0, 0, 0, 0, 0, 0, 0, 0, 0, 0, 0, 0, 0,
  0, 0, 0, 0, 0, 0, 0, 0, 0, 0, 0, 0, 0, 0, 0, 0, 0, 0, 0, 0,
  0, 0, 0, 0, 0, 0, 0, 0, 0, 0, 0, 0, 0, 0, 0, 0, 0, 0, 0, 0,
  0, 0, 0, 0, 0, 0, 0, 0, 0, 0, 0, 0, 0, 0, 0, 0, 0, 0, 0, 0,
  0, 0, 0, 0, 0, 0, 0, 0, 0, 0, 0, 0, 0, 0, 0, 0, 0, 0, 0, 0,
  0, 0, 0, 0, 0, 0, 0, 0, 0, 0, 0, 0, 0, 0, 0, 0, 0, 0, 0, 0,
  0, 0, 0, 0, 0, 0, 0, 0, 0, 0, 0, 0, 0, 0, 0, 0, 0, 0, 0, 0,
  0, 0, 0, 0, 0, 0, 0, 0, 0, 0, 0, 0, 0, 0, 0, 0, 0, 0, 0, 0,
  0, 0, 0, 0, 0, 0, 0, 0, 0, 0, 0, 0, 0, 0, 0, 0, 0, 0, 0, 0,
  0, 0, 0, 0, 0, 0, 0, 0, 0, 0, 0, 0, 0, 0, 0, 0, 0, 0, 0, 0,
  0, 0, 0, 0, 0, 0, 0, 0, 0, 0, 0, 0, 0, 0, 0, 0, 0, 0, 0, 0,
  0, 0, 0, 0, 0, 0, 0, 0, 0, 0, 0, 0, 0, 0, 0, 0, 0, 0, 0, 0,
  0, 0, 0, 0, 0, 0, 0, 0, 0, 0, 0, 0, 0, 0, 0, 0, 0, 0, 0, 0,
  0, 0, 0, 0, 0, 0, 0, 0, 0, 0, 0, 0, 0, 0, 0, 0, 0, 0, 0, 0,
  0, 0, 0, 0, 0, 0, 0, 0, 0, 0, 0, 0, 0, 0, 0, 0, 0, 0, 0, 0,
  0, 0, 0, 0, 0, 0, 0, 0, 0, 0, 0, 0, 0, 0, 0, 0, 0, 0, 0, 0,
  0, 0, 0, 0, 0, 0, 0, 0, 0, 0, 0, 0, 0, 0, 0, 0, 0, 0, 0, 0,
  0, 0, 0, 0, 0, 0, 0, 0, 0, 0, 0, 0, 0, 0, 0, 0, 0, 0, 0, 0,
  0, 0, 0, 0, 0, 0, 0, 0, 0, 0, 0, 0, 0, 0, 0, 0, 0, 0, 0, 0,
  0, 0, 0, 0, 0, 0, 0, 0, 0, 0, 0, 0, 0, 0, 0, 0, 0, 0, 0, 0,
  0, 0, 0, 0, 0, 0, 0, 0, 0, 0, 0, 0, 0, 0, 0, 0, 0, 0, 0, 0,
  0, 0, 0, 0, 0, 0, 0, 0, 0, 0, 0, 0, 0, 0, 0, 0, 0, 0, 0, 0,
  0, 0, 0, 0, 0, 0, 0, 0, 0, 0, 0, 0, 0, 0, 0, 0, 0, 0, 0, 0,
  0, 0, 0, 0, 0, 0, 0, 0, 0, 0, 0, 0, 0, 0, 0, 0, 0, 0, 0, 0,
  0, 0, 0, 0, 0, 0, 0, 0, 0, 0, 0, 0, 0, 0, 0, 0, 0, 0, 0, 0,
  0, 0, 0, 0, 0, 0, 0, 0, 0, 0, 0, 0, 0, 0, 0, 0, 0, 0, 0, 0,
  0, 0, 0, 0, 0, 0, 0, 0, 0, 0, 0, 0, 0, 0, 0, 0, 0, 0, 0, 0,
  0, 0, 0, 0, 0, 0, 0, 0, 0, 0, 0, 0, 0, 0, 0, 0, 0, 0, 0, 0,
  0, 0, 0, 0, 0, 0, 0, 0, 0, 0, 0, 0, 0, 0, 0, 0, 0, 0, 0, 0,
  0, 0, 0, 0, 0, 0, 0, 0, 0, 0, 0, 0, 0, 0, 0, 0, 0, 0, 0, 0,
  0, 0, 0, 0, 0, 0, 0, 0, 0, 0, 0, 0, 0, 0, 0, 0, 0, 0, 0, 0,
  0, 0, 0, 0, 0, 0, 0, 0, 0, 0, 0, 0, 0, 0, 0, 0, 0, 0, 0, 0,
  0, 0, 0, 0, 0, 0, 0, 0, 0, 0, 0, 0, 0, 0, 0, 0, 0, 0, 0, 0,
  0, 0, 0, 0, 0, 0, 0, 0, 0, 0, 0, 0, 0, 0, 0, 0, 0, 0, 0, 0,
  0, 0, 0, 0, 0, 0, 0, 0, 0, 0, 0, 0, 0, 0, 0, 0, 0, 0, 0, 0,
  0, 0, 0, 0, 0, 0, 0, 0, 0, 0, 0, 0, 0, 0, 0, 0, 0, 0, 0, 0,
  0, 0, 0, 0, 0, 0, 0, 0, 0, 0, 0, 0, 0, 0, 0, 0, 0, 0, 0, 0,
  0, 0, 0, 0, 0, 0, 0, 0, 0, 0, 0, 0, 0, 0, 0, 0, 0, 0, 0, 0,
  0, 0, 0, 0, 0, 0, 0, 0, 0, 0, 0, 0, 0, 0, 0, 0, 0, 0, 0, 0,
  0, 0, 0, 0, 0, 0, 0, 0, 0, 0, 0, 0, 0, 0, 0, 0, 0, 0, 0, 0,
  0, 0, 0, 0, 0, 0, 0, 0, 0, 0, 0, 0, 0, 0, 0, 0, 0, 0, 0, 0,
  0, 0, 0, 0, 0, 0, 0, 0, 0, 0, 0, 0, 0, 0, 0, 0, 0, 0, 0, 0,
  0, 0, 0, 0, 0, 0, 0, 0, 0, 0, 0, 0, 0, 0, 0, 0, 0, 0, 0, 0,
  0, 0, 0, 0, 0, 0, 0, 0, 0, 0, 0, 0, 0, 0, 0, 0, 0, 0, 0, 0,
  0, 0, 0, 0, 0, 0, 0, 0, 0, 0, 0, 0, 0, 0, 0, 0, 0, 0, 0, 0,
  0, 0, 0, 0, 0, 0, 0, 0, 0, 0, 0, 0, 0, 0, 0, 0, 0, 0, 0, 0,
  0, 0, 0, 0, 0, 0, 0, 0, 0, 0, 0, 0, 0, 0, 0, 0, 0, 0, 0, 0,
  0, 0, 0, 0, 0, 0, 0, 0, 0, 0, 0, 0, 0, 0, 0, 0, 0, 0, 0, 0,
  0, 0, 0, 0, 0, 0, 0, 0, 0, 0, 0, 0, 0, 0, 0, 0, 0, 0, 0, 0,
  0, 0, 0, 0, 0, 0, 0, 0, 174, 224, 249, 255, 4, 0, 0, 0, 224, 1, 0, 0,
  0, 0, 0, 0, 0, 0, 0, 0, 0, 0, 0, 0, 0, 0, 0, 0, 0, 0, 0, 0,
  0, 0, 0, 0, 0, 0, 0, 0, 0, 0, 0, 0, 0, 0, 0, 0, 0, 0, 0, 0,
  0, 0, 0, 0, 0, 0, 0, 0, 0, 0, 0, 0, 0, 0, 0, 0, 0, 0, 0, 0,
  0, 0, 0, 0, 0, 0, 0, 0, 0, 0, 0, 0, 0, 0, 0, 0, 0, 0, 0, 0,
  0, 0, 0, 0, 0, 0, 0, 0, 0, 0, 0, 0, 0, 0, 0, 0, 0, 0, 0, 0,
  0, 0, 0, 0, 0, 0, 0, 0, 0, 0, 0, 0, 0, 0, 0, 0, 0, 0, 0, 0,
  0, 0, 0, 0, 0, 0, 0, 0, 0, 0, 0, 0, 0, 0, 0, 0, 0, 0, 0, 0,
  0, 0, 0, 0, 0, 0, 0, 0, 0, 0, 0, 0, 0, 0, 0, 0, 0, 0, 0, 0,
  0, 0, 0, 0, 0, 0, 0, 0, 0, 0, 0, 0, 0, 0, 0, 0, 0, 0, 0, 0,
  0, 0, 0, 0, 0, 0, 0, 0, 0, 0, 0, 0, 0, 0, 0, 0, 0, 0, 0, 0,
  0, 0, 0, 0, 0, 0, 0, 0, 0, 0, 0, 0, 0, 0, 0, 0, 0, 0, 0, 0,
  0, 0, 0, 0, 0, 0, 0, 0, 0, 0, 0, 0, 0, 0, 0, 0, 0, 0, 0, 0,
  0, 0, 0, 0, 0, 0, 0, 0, 0, 0, 0, 0, 0, 0, 0, 0, 0, 0, 0, 0,
  0, 0, 0, 0, 0, 0, 0, 0, 0, 0, 0, 0, 0, 0, 0, 0, 0, 0, 0, 0,
  0, 0, 0, 0, 0, 0, 0, 0, 0, 0, 0, 0, 0, 0, 0, 0, 0, 0, 0, 0,
  0, 0, 0, 0, 0, 0, 0, 0, 0, 0, 0, 0, 0, 0, 0, 0, 0, 0, 0, 0,
  0, 0, 0, 0, 0, 0, 0, 0, 0, 0, 0, 0, 0, 0, 0, 0, 0, 0, 0, 0,
  0, 0, 0, 0, 0, 0, 0, 0, 0, 0, 0, 0, 0, 0, 0, 0, 0, 0, 0, 0,
  0, 0, 0, 0, 0, 0, 0, 0, 0, 0, 0, 0, 0, 0, 0, 0, 0, 0, 0, 0,
  0, 0, 0, 0, 0, 0, 0, 0, 0, 0, 0, 0, 0, 0, 0, 0, 0, 0, 0, 0,
  0, 0, 0, 0, 0, 0, 0, 0, 0, 0, 0, 0, 0, 0, 0, 0, 0, 0, 0, 0,
  0, 0, 0, 0, 0, 0, 0, 0, 0, 0, 0, 0, 0, 0, 0, 0, 0, 0, 0, 0,
  0, 0, 0, 0, 0, 0, 0, 0, 0, 0, 0, 0, 0, 0, 0, 0, 0, 0, 0, 0,
  0, 0, 0, 0, 0, 0, 0, 0, 0, 0, 0, 0, 0, 0, 0, 0, 0, 0, 0, 0,
  154, 226, 249, 255, 4, 0, 0, 0, 0, 2, 0, 0, 0, 0, 0, 0, 0, 0, 0, 0,
  0, 0, 0, 0, 0, 0, 0, 0, 0, 0, 0, 0, 0, 0, 0, 0, 0, 0, 0, 0,
  0, 0, 0, 0, 0, 0, 0, 0, 0, 0, 0, 0, 0, 0, 0, 0, 0, 0, 0, 0,
  0, 0, 0, 0, 0, 0, 0, 0, 0, 0, 0, 0, 0, 0, 0, 0, 0, 0, 0, 0,
  0, 0, 0, 0, 0, 0, 0, 0, 0, 0, 0, 0, 0, 0, 0, 0, 0, 0, 0, 0,
  0, 0, 0, 0, 0, 0, 0, 0, 0, 0, 0, 0, 0, 0, 0, 0, 0, 0, 0, 0,
  0, 0, 0, 0, 0, 0, 0, 0, 0, 0, 0, 0, 0, 0, 0, 0, 0, 0, 0, 0,
  0, 0, 0, 0, 0, 0, 0, 0, 0, 0, 0, 0, 0, 0, 0, 0, 0, 0, 0, 0,
  0, 0, 0, 0, 0, 0, 0, 0, 0, 0, 0, 0, 0, 0, 0, 0, 0, 0, 0, 0,
  0, 0, 0, 0, 0, 0, 0, 0, 0, 0, 0, 0, 0, 0, 0, 0, 0, 0, 0, 0,
  0, 0, 0, 0, 0, 0, 0, 0, 0, 0, 0, 0, 0, 0, 0, 0, 0, 0, 0, 0,
  0, 0, 0, 0, 0, 0, 0, 0, 0, 0, 0, 0, 0, 0, 0, 0, 0, 0, 0, 0,
  0, 0, 0, 0, 0, 0, 0, 0, 0, 0, 0, 0, 0, 0, 0, 0, 0, 0, 0, 0,
  0, 0, 0, 0, 0, 0, 0, 0, 0, 0, 0, 0, 0, 0, 0, 0, 0, 0, 0, 0,
  0, 0, 0, 0, 0, 0, 0, 0, 0, 0, 0, 0, 0, 0, 0, 0, 0, 0, 0, 0,
  0, 0, 0, 0, 0, 0, 0, 0, 0, 0, 0, 0, 0, 0, 0, 0, 0, 0, 0, 0,
  0, 0, 0, 0, 0, 0, 0, 0, 0, 0, 0, 0, 0, 0, 0, 0, 0, 0, 0, 0,
  0, 0, 0, 0, 0, 0, 0, 0, 0, 0, 0, 0, 0, 0, 0, 0, 0, 0, 0, 0,
  0, 0, 0, 0, 0, 0, 0, 0, 0, 0, 0, 0, 0, 0, 0, 0, 0, 0, 0, 0,
  0, 0, 0, 0, 0, 0, 0, 0, 0, 0, 0, 0, 0, 0, 0, 0, 0, 0, 0, 0,
  0, 0, 0, 0, 0, 0, 0, 0, 0, 0, 0, 0, 0, 0, 0, 0, 0, 0, 0, 0,
  0, 0, 0, 0, 0, 0, 0, 0, 0, 0, 0, 0, 0, 0, 0, 0, 0, 0, 0, 0,
  0, 0, 0, 0, 0, 0, 0, 0, 0, 0, 0, 0, 0, 0, 0, 0, 0, 0, 0, 0,
  0, 0, 0, 0, 0, 0, 0, 0, 0, 0, 0, 0, 0, 0, 0, 0, 0, 0, 0, 0,
  0, 0, 0, 0, 0, 0, 0, 0, 0, 0, 0, 0, 0, 0, 0, 0, 0, 0, 0, 0,
  0, 0, 0, 0, 0, 0, 0, 0, 0, 0, 0, 0, 0, 0, 0, 0, 0, 0, 0, 0,
  0, 0, 0, 0, 166, 228, 249, 255, 4, 0, 0, 0, 0, 2, 0, 0, 0, 0, 0, 0,
  0, 0, 0, 0, 0, 0, 0, 0, 0, 0, 0, 0, 0, 0, 0, 0, 0, 0, 0, 0,
  0, 0, 0, 0, 0, 0, 0, 0, 0, 0, 0, 0, 0, 0, 0, 0, 0, 0, 0, 0,
  0, 0, 0, 0, 0, 0, 0, 0, 0, 0, 0, 0, 0, 0, 0, 0, 0, 0, 0, 0,
  0, 0, 0, 0, 0, 0, 0, 0, 0, 0, 0, 0, 0, 0, 0, 0, 0, 0, 0, 0,
  0, 0, 0, 0, 0, 0, 0, 0, 0, 0, 0, 0, 0, 0, 0, 0, 0, 0, 0, 0,
  0, 0, 0, 0, 0, 0, 0, 0, 0, 0, 0, 0, 0, 0, 0, 0, 0, 0, 0, 0,
  0, 0, 0, 0, 0, 0, 0, 0, 0, 0, 0, 0, 0, 0, 0, 0, 0, 0, 0, 0,
  0, 0, 0, 0, 0, 0, 0, 0, 0, 0, 0, 0, 0, 0, 0, 0, 0, 0, 0, 0,
  0, 0, 0, 0, 0, 0, 0, 0, 0, 0, 0, 0, 0, 0, 0, 0, 0, 0, 0, 0,
  0, 0, 0, 0, 0, 0, 0, 0, 0, 0, 0, 0, 0, 0, 0, 0, 0, 0, 0, 0,
  0, 0, 0, 0, 0, 0, 0, 0, 0, 0, 0, 0, 0, 0, 0, 0, 0, 0, 0, 0,
  0, 0, 0, 0, 0, 0, 0, 0, 0, 0, 0, 0, 0, 0, 0, 0, 0, 0, 0, 0,
  0, 0, 0, 0, 0, 0, 0, 0, 0, 0, 0, 0, 0, 0, 0, 0, 0, 0, 0, 0,
  0, 0, 0, 0, 0, 0, 0, 0, 0, 0, 0, 0, 0, 0, 0, 0, 0, 0, 0, 0,
  0, 0, 0, 0, 0, 0, 0, 0, 0, 0, 0, 0, 0, 0, 0, 0, 0, 0, 0, 0,
  0, 0, 0, 0, 0, 0, 0, 0, 0, 0, 0, 0, 0, 0, 0, 0, 0, 0, 0, 0,
  0, 0, 0, 0, 0, 0, 0, 0, 0, 0, 0, 0, 0, 0, 0, 0, 0, 0, 0, 0,
  0, 0, 0, 0, 0, 0, 0, 0, 0, 0, 0, 0, 0, 0, 0, 0, 0, 0, 0, 0,
  0, 0, 0, 0, 0, 0, 0, 0, 0, 0, 0, 0, 0, 0, 0, 0, 0, 0, 0, 0,
  0, 0, 0, 0, 0, 0, 0, 0, 0, 0, 0, 0, 0, 0, 0, 0, 0, 0, 0, 0,
  0, 0, 0, 0, 0, 0, 0, 0, 0, 0, 0, 0, 0, 0, 0, 0, 0, 0, 0, 0,
  0, 0, 0, 0, 0, 0, 0, 0, 0, 0, 0, 0, 0, 0, 0, 0, 0, 0, 0, 0,
  0, 0, 0, 0, 0, 0, 0, 0, 0, 0, 0, 0, 0, 0, 0, 0, 0, 0, 0, 0,
  0, 0, 0, 0, 0, 0, 0, 0, 0, 0, 0, 0, 0, 0, 0, 0, 0, 0, 0, 0,
  0, 0, 0, 0, 0, 0, 0, 0, 0, 0, 0, 0, 0, 0, 0, 0, 0, 0, 0, 0,
  0, 0, 0, 0, 0, 0, 0, 0, 178, 230, 249, 255, 4, 0, 0, 0, 4, 0, 0, 0,
  116, 114, 117, 101, 194, 230, 249, 255, 4, 0, 0, 0, 16, 0, 0, 0, 50, 46, 57, 46,
  48, 0, 0, 0, 0, 0, 0, 0, 0, 0, 0, 0, 222, 230, 249, 255, 4, 0, 0, 0,
  12, 0, 0, 0, 0, 0, 0, 0, 2, 0, 0, 0, 1, 0, 0, 0, 246, 230, 249, 255,
  4, 0, 0, 0, 0, 12, 0, 0, 0, 0, 0, 0, 0, 0, 0, 0, 0, 0, 0, 0,
  0, 0, 0, 0, 0, 0, 0, 0, 0, 0, 0, 0, 0, 0, 0, 0, 0, 0, 0, 0,
  0, 0, 0, 0, 0, 0, 0, 0, 0, 0, 0, 0, 0, 0, 0, 0, 0, 0, 0, 0,
  0, 0, 0, 0, 0, 0, 0, 0, 0, 0, 0, 0, 0, 0, 0, 0, 0, 0, 0, 0,
  0, 0, 0, 0, 0, 0, 0, 0, 0, 0, 0, 0, 0, 0, 0, 0, 0, 0, 0, 0,
  0, 0, 0, 0, 0, 0, 0, 0, 0, 0, 0, 0, 0, 0, 0, 0, 0, 0, 0, 0,
  0, 0, 0, 0, 0, 0, 0, 0, 0, 0, 0, 0, 0, 0, 0, 0, 0, 0, 0, 0,
  0, 0, 0, 0, 0, 0, 0, 0, 0, 0, 0, 0, 0, 0, 0, 0, 0, 0, 0, 0,
  0, 0, 0, 0, 0, 0, 0, 0, 0, 0, 0, 0, 0, 0, 0, 0, 0, 0, 0, 0,
  0, 0, 0, 0, 0, 0, 0, 0, 0, 0, 0, 0, 0, 0, 0, 0, 0, 0, 0, 0,
  0, 0, 0, 0, 0, 0, 0, 0, 0, 0, 0, 0, 0, 0, 0, 0, 0, 0, 0, 0,
  0, 0, 0, 0, 0, 0, 0, 0, 0, 0, 0, 0, 0, 0, 0, 0, 0, 0, 0, 0,
  0, 0, 0, 0, 0, 0, 0, 0, 0, 0, 0, 0, 0, 0, 0, 0, 0, 0, 0, 0,
  0, 0, 0, 0, 0, 0, 0, 0, 0, 0, 0, 0, 0, 0, 0, 0, 0, 0, 0, 0,
  0, 0, 0, 0, 0, 0, 0, 0, 0, 0, 0, 0, 0, 0, 0, 0, 0, 0, 0, 0,
  0, 0, 0, 0, 0, 0, 0, 0, 0, 0, 0, 0, 0, 0, 0, 0, 0, 0, 0, 0,
  0, 0, 0, 0, 0, 0, 0, 0, 0, 0, 0, 0, 0, 0, 0, 0, 0, 0, 0, 0,
  0, 0, 0, 0, 0, 0, 0, 0, 0, 0, 0, 0, 0, 0, 0, 0, 0, 0, 0, 0,
  0, 0, 0, 0, 0, 0, 0, 0, 0, 0, 0, 0, 0, 0, 0, 0, 0, 0, 0, 0,
  0, 0, 0, 0, 0, 0, 0, 0, 0, 0, 0, 0, 0, 0, 0, 0, 0, 0, 0, 0,
  0, 0, 0, 0, 0, 0, 0, 0, 0, 0, 0, 0, 0, 0, 0, 0, 0, 0, 0, 0,
  0, 0, 0, 0, 0, 0, 0, 0, 0, 0, 0, 0, 0, 0, 0, 0, 0, 0, 0, 0,
  0, 0, 0, 0, 0, 0, 0, 0, 0, 0, 0, 0, 0, 0, 0, 0, 0, 0, 0, 0,
  0, 0, 0, 0, 0, 0, 0, 0, 0, 0, 0, 0, 0, 0, 0, 0, 0, 0, 0, 0,
  0, 0, 0, 0, 0, 0, 0, 0, 0, 0, 0, 0, 0, 0, 0, 0, 0, 0, 0, 0,
  0, 0, 0, 0, 0, 0, 0, 0, 0, 0, 0, 0, 0, 0, 0, 0, 0, 0, 0, 0,
  0, 0, 0, 0, 0, 0, 0, 0, 0, 0, 0, 0, 0, 0, 0, 0, 0, 0, 0, 0,
  0, 0, 0, 0, 0, 0, 0, 0, 0, 0, 0, 0, 0, 0, 0, 0, 0, 0, 0, 0,
  0, 0, 0, 0, 0, 0, 0, 0, 0, 0, 0, 0, 0, 0, 0, 0, 0, 0, 0, 0,
  0, 0, 0, 0, 0, 0, 0, 0, 0, 0, 0, 0, 0, 0, 0, 0, 0, 0, 0, 0,
  0, 0, 0, 0, 0, 0, 0, 0, 0, 0, 0, 0, 0, 0, 0, 0, 0, 0, 0, 0,
  0, 0, 0, 0, 0, 0, 0, 0, 0, 0, 0, 0, 0, 0, 0, 0, 0, 0, 0, 0,
  0, 0, 0, 0, 0, 0, 0, 0, 0, 0, 0, 0, 0, 0, 0, 0, 0, 0, 0, 0,
  0, 0, 0, 0, 0, 0, 0, 0, 0, 0, 0, 0, 0, 0, 0, 0, 0, 0, 0, 0,
  0, 0, 0, 0, 0, 0, 0, 0, 0, 0, 0, 0, 0, 0, 0, 0, 0, 0, 0, 0,
  0, 0, 0, 0, 0, 0, 0, 0, 0, 0, 0, 0, 0, 0, 0, 0, 0, 0, 0, 0,
  0, 0, 0, 0, 0, 0, 0, 0, 0, 0, 0, 0, 0, 0, 0, 0, 0, 0, 0, 0,
  0, 0, 0, 0, 0, 0, 0, 0, 0, 0, 0, 0, 0, 0, 0, 0, 0, 0, 0, 0,
  0, 0, 0, 0, 0, 0, 0, 0, 0, 0, 0, 0, 0, 0, 0, 0, 0, 0, 0, 0,
  0, 0, 0, 0, 0, 0, 0, 0, 0, 0, 0, 0, 0, 0, 0, 0, 0, 0, 0, 0,
  0, 0, 0, 0, 0, 0, 0, 0, 0, 0, 0, 0, 0, 0, 0, 0, 0, 0, 0, 0,
  0, 0, 0, 0, 0, 0, 0, 0, 0, 0, 0, 0, 0, 0, 0, 0, 0, 0, 0, 0,
  0, 0, 0, 0, 0, 0, 0, 0, 0, 0, 0, 0, 0, 0, 0, 0, 0, 0, 0, 0,
  0, 0, 0, 0, 0, 0, 0, 0, 0, 0, 0, 0, 0, 0, 0, 0, 0, 0, 0, 0,
  0, 0, 0, 0, 0, 0, 0, 0, 0, 0, 0, 0, 0, 0, 0, 0, 0, 0, 0, 0,
  0, 0, 0, 0, 0, 0, 0, 0, 0, 0, 0, 0, 0, 0, 0, 0, 0, 0, 0, 0,
  0, 0, 0, 0, 0, 0, 0, 0, 0, 0, 0, 0, 0, 0, 0, 0, 0, 0, 0, 0,
  0, 0, 0, 0, 0, 0, 0, 0, 0, 0, 0, 0, 0, 0, 0, 0, 0, 0, 0, 0,
  0, 0, 0, 0, 0, 0, 0, 0, 0, 0, 0, 0, 0, 0, 0, 0, 0, 0, 0, 0,
  0, 0, 0, 0, 0, 0, 0, 0, 0, 0, 0, 0, 0, 0, 0, 0, 0, 0, 0, 0,
  0, 0, 0, 0, 0, 0, 0, 0, 0, 0, 0, 0, 0, 0, 0, 0, 0, 0, 0, 0,
  0, 0, 0, 0, 0, 0, 0, 0, 0, 0, 0, 0, 0, 0, 0, 0, 0, 0, 0, 0,
  0, 0, 0, 0, 0, 0, 0, 0, 0, 0, 0, 0, 0, 0, 0, 0, 0, 0, 0, 0,
  0, 0, 0, 0, 0, 0, 0, 0, 0, 0, 0, 0, 0, 0, 0, 0, 0, 0, 0, 0,
  0, 0, 0, 0, 0, 0, 0, 0, 0, 0, 0, 0, 0, 0, 0, 0, 0, 0, 0, 0,
  0, 0, 0, 0, 0, 0, 0, 0, 0, 0, 0, 0, 0, 0, 0, 0, 0, 0, 0, 0,
  0, 0, 0, 0, 0, 0, 0, 0, 0, 0, 0, 0, 0, 0, 0, 0, 0, 0, 0, 0,
  0, 0, 0, 0, 0, 0, 0, 0, 0, 0, 0, 0, 0, 0, 0, 0, 0, 0, 0, 0,
  0, 0, 0, 0, 0, 0, 0, 0, 0, 0, 0, 0, 0, 0, 0, 0, 0, 0, 0, 0,
  0, 0, 0, 0, 0, 0, 0, 0, 0, 0, 0, 0, 0, 0, 0, 0, 0, 0, 0, 0,
  0, 0, 0, 0, 0, 0, 0, 0, 0, 0, 0, 0, 0, 0, 0, 0, 0, 0, 0, 0,
  0, 0, 0, 0, 0, 0, 0, 0, 0, 0, 0, 0, 0, 0, 0, 0, 0, 0, 0, 0,
  0, 0, 0, 0, 0, 0, 0, 0, 0, 0, 0, 0, 0, 0, 0, 0, 0, 0, 0, 0,
  0, 0, 0, 0, 0, 0, 0, 0, 0, 0, 0, 0, 0, 0, 0, 0, 0, 0, 0, 0,
  0, 0, 0, 0, 0, 0, 0, 0, 0, 0, 0, 0, 0, 0, 0, 0, 0, 0, 0, 0,
  0, 0, 0, 0, 0, 0, 0, 0, 0, 0, 0, 0, 0, 0, 0, 0, 0, 0, 0, 0,
  0, 0, 0, 0, 0, 0, 0, 0, 0, 0, 0, 0, 0, 0, 0, 0, 0, 0, 0, 0,
  0, 0, 0, 0, 0, 0, 0, 0, 0, 0, 0, 0, 0, 0, 0, 0, 0, 0, 0, 0,
  0, 0, 0, 0, 0, 0, 0, 0, 0, 0, 0, 0, 0, 0, 0, 0, 0, 0, 0, 0,
  0, 0, 0, 0, 0, 0, 0, 0, 0, 0, 0, 0, 0, 0, 0, 0, 0, 0, 0, 0,
  0, 0, 0, 0, 0, 0, 0, 0, 0, 0, 0, 0, 0, 0, 0, 0, 0, 0, 0, 0,
  0, 0, 0, 0, 0, 0, 0, 0, 0, 0, 0, 0, 0, 0, 0, 0, 0, 0, 0, 0,
  0, 0, 0, 0, 0, 0, 0, 0, 0, 0, 0, 0, 0, 0, 0, 0, 0, 0, 0, 0,
  0, 0, 0, 0, 0, 0, 0, 0, 0, 0, 0, 0, 0, 0, 0, 0, 0, 0, 0, 0,
  0, 0, 0, 0, 0, 0, 0, 0, 0, 0, 0, 0, 0, 0, 0, 0, 0, 0, 0, 0,
  0, 0, 0, 0, 0, 0, 0, 0, 0, 0, 0, 0, 0, 0, 0, 0, 0, 0, 0, 0,
  0, 0, 0, 0, 0, 0, 0, 0, 0, 0, 0, 0, 0, 0, 0, 0, 0, 0, 0, 0,
  0, 0, 0, 0, 0, 0, 0, 0, 0, 0, 0, 0, 0, 0, 0, 0, 0, 0, 0, 0,
  0, 0, 0, 0, 0, 0, 0, 0, 0, 0, 0, 0, 0, 0, 0, 0, 0, 0, 0, 0,
  0, 0, 0, 0, 0, 0, 0, 0, 0, 0, 0, 0, 0, 0, 0, 0, 0, 0, 0, 0,
  0, 0, 0, 0, 0, 0, 0, 0, 0, 0, 0, 0, 0, 0, 0, 0, 0, 0, 0, 0,
  0, 0, 0, 0, 0, 0, 0, 0, 0, 0, 0, 0, 0, 0, 0, 0, 0, 0, 0, 0,
  0, 0, 0, 0, 0, 0, 0, 0, 0, 0, 0, 0, 0, 0, 0, 0, 0, 0, 0, 0,
  0, 0, 0, 0, 0, 0, 0, 0, 0, 0, 0, 0, 0, 0, 0, 0, 0, 0, 0, 0,
  0, 0, 0, 0, 0, 0, 0, 0, 0, 0, 0, 0, 0, 0, 0, 0, 0, 0, 0, 0,
  0, 0, 0, 0, 0, 0, 0, 0, 0, 0, 0, 0, 0, 0, 0, 0, 0, 0, 0, 0,
  0, 0, 0, 0, 0, 0, 0, 0, 0, 0, 0, 0, 0, 0, 0, 0, 0, 0, 0, 0,
  0, 0, 0, 0, 0, 0, 0, 0, 0, 0, 0, 0, 0, 0, 0, 0, 0, 0, 0, 0,
  0, 0, 0, 0, 0, 0, 0, 0, 0, 0, 0, 0, 0, 0, 0, 0, 0, 0, 0, 0,
  0, 0, 0, 0, 0, 0, 0, 0, 0, 0, 0, 0, 0, 0, 0, 0, 0, 0, 0, 0,
  0, 0, 0, 0, 0, 0, 0, 0, 0, 0, 0, 0, 0, 0, 0, 0, 0, 0, 0, 0,
  0, 0, 0, 0, 0, 0, 0, 0, 0, 0, 0, 0, 0, 0, 0, 0, 0, 0, 0, 0,
  0, 0, 0, 0, 0, 0, 0, 0, 0, 0, 0, 0, 0, 0, 0, 0, 0, 0, 0, 0,
  0, 0, 0, 0, 0, 0, 0, 0, 0, 0, 0, 0, 0, 0, 0, 0, 0, 0, 0, 0,
  0, 0, 0, 0, 0, 0, 0, 0, 0, 0, 0, 0, 0, 0, 0, 0, 0, 0, 0, 0,
  0, 0, 0, 0, 0, 0, 0, 0, 0, 0, 0, 0, 0, 0, 0, 0, 0, 0, 0, 0,
  0, 0, 0, 0, 0, 0, 0, 0, 0, 0, 0, 0, 0, 0, 0, 0, 0, 0, 0, 0,
  0, 0, 0, 0, 0, 0, 0, 0, 0, 0, 0, 0, 0, 0, 0, 0, 0, 0, 0, 0,
  0, 0, 0, 0, 0, 0, 0, 0, 0, 0, 0, 0, 0, 0, 0, 0, 0, 0, 0, 0,
  0, 0, 0, 0, 0, 0, 0, 0, 0, 0, 0, 0, 0, 0, 0, 0, 0, 0, 0, 0,
  0, 0, 0, 0, 0, 0, 0, 0, 0, 0, 0, 0, 0, 0, 0, 0, 0, 0, 0, 0,
  0, 0, 0, 0, 0, 0, 0, 0, 0, 0, 0, 0, 0, 0, 0, 0, 0, 0, 0, 0,
  0, 0, 0, 0, 0, 0, 0, 0, 0, 0, 0, 0, 0, 0, 0, 0, 0, 0, 0, 0,
  0, 0, 0, 0, 0, 0, 0, 0, 0, 0, 0, 0, 0, 0, 0, 0, 0, 0, 0, 0,
  0, 0, 0, 0, 0, 0, 0, 0, 0, 0, 0, 0, 0, 0, 0, 0, 0, 0, 0, 0,
  0, 0, 0, 0, 0, 0, 0, 0, 0, 0, 0, 0, 0, 0, 0, 0, 0, 0, 0, 0,
  0, 0, 0, 0, 0, 0, 0, 0, 0, 0, 0, 0, 0, 0, 0, 0, 0, 0, 0, 0,
  0, 0, 0, 0, 0, 0, 0, 0, 0, 0, 0, 0, 0, 0, 0, 0, 0, 0, 0, 0,
  0, 0, 0, 0, 0, 0, 0, 0, 0, 0, 0, 0, 0, 0, 0, 0, 0, 0, 0, 0,
  0, 0, 0, 0, 0, 0, 0, 0, 0, 0, 0, 0, 0, 0, 0, 0, 0, 0, 0, 0,
  0, 0, 0, 0, 0, 0, 0, 0, 0, 0, 0, 0, 0, 0, 0, 0, 0, 0, 0, 0,
  0, 0, 0, 0, 0, 0, 0, 0, 0, 0, 0, 0, 0, 0, 0, 0, 0, 0, 0, 0,
  0, 0, 0, 0, 0, 0, 0, 0, 0, 0, 0, 0, 0, 0, 0, 0, 0, 0, 0, 0,
  0, 0, 0, 0, 0, 0, 0, 0, 0, 0, 0, 0, 0, 0, 0, 0, 0, 0, 0, 0,
  0, 0, 0, 0, 0, 0, 0, 0, 0, 0, 0, 0, 0, 0, 0, 0, 0, 0, 0, 0,
  0, 0, 0, 0, 0, 0, 0, 0, 0, 0, 0, 0, 0, 0, 0, 0, 0, 0, 0, 0,
  0, 0, 0, 0, 0, 0, 0, 0, 0, 0, 0, 0, 0, 0, 0, 0, 0, 0, 0, 0,
  0, 0, 0, 0, 0, 0, 0, 0, 0, 0, 0, 0, 0, 0, 0, 0, 0, 0, 0, 0,
  0, 0, 0, 0, 0, 0, 0, 0, 0, 0, 0, 0, 0, 0, 0, 0, 0, 0, 0, 0,
  0, 0, 0, 0, 0, 0, 0, 0, 0, 0, 0, 0, 0, 0, 0, 0, 0, 0, 0, 0,
  0, 0, 0, 0, 0, 0, 0, 0, 0, 0, 0, 0, 0, 0, 0, 0, 0, 0, 0, 0,
  0, 0, 0, 0, 0, 0, 0, 0, 0, 0, 0, 0, 0, 0, 0, 0, 0, 0, 0, 0,
  0, 0, 0, 0, 0, 0, 0, 0, 0, 0, 0, 0, 0, 0, 0, 0, 0, 0, 0, 0,
  0, 0, 0, 0, 0, 0, 0, 0, 0, 0, 0, 0, 0, 0, 0, 0, 0, 0, 0, 0,
  0, 0, 0, 0, 0, 0, 0, 0, 0, 0, 0, 0, 0, 0, 0, 0, 0, 0, 0, 0,
  0, 0, 0, 0, 0, 0, 0, 0, 0, 0, 0, 0, 0, 0, 0, 0, 0, 0, 0, 0,
  0, 0, 0, 0, 0, 0, 0, 0, 0, 0, 0, 0, 0, 0, 0, 0, 0, 0, 0, 0,
  0, 0, 0, 0, 0, 0, 0, 0, 0, 0, 0, 0, 0, 0, 0, 0, 0, 0, 0, 0,
  0, 0, 0, 0, 0, 0, 0, 0, 0, 0, 0, 0, 0, 0, 0, 0, 0, 0, 0, 0,
  0, 0, 0, 0, 0, 0, 0, 0, 0, 0, 0, 0, 0, 0, 0, 0, 0, 0, 0, 0,
  0, 0, 0, 0, 0, 0, 0, 0, 0, 0, 0, 0, 0, 0, 0, 0, 0, 0, 0, 0,
  0, 0, 0, 0, 0, 0, 0, 0, 0, 0, 0, 0, 0, 0, 0, 0, 0, 0, 0, 0,
  0, 0, 0, 0, 0, 0, 0, 0, 0, 0, 0, 0, 0, 0, 0, 0, 0, 0, 0, 0,
  0, 0, 0, 0, 0, 0, 0, 0, 0, 0, 0, 0, 0, 0, 0, 0, 0, 0, 0, 0,
  0, 0, 0, 0, 0, 0, 0, 0, 0, 0, 0, 0, 0, 0, 0, 0, 0, 0, 0, 0,
  0, 0, 0, 0, 0, 0, 0, 0, 0, 0, 0, 0, 0, 0, 0, 0, 0, 0, 0, 0,
  0, 0, 0, 0, 0, 0, 0, 0, 0, 0, 0, 0, 0, 0, 0, 0, 0, 0, 0, 0,
  0, 0, 0, 0, 0, 0, 0, 0, 0, 0, 0, 0, 0, 0, 0, 0, 0, 0, 0, 0,
  0, 0, 0, 0, 0, 0, 0, 0, 0, 0, 0, 0, 0, 0, 0, 0, 0, 0, 0, 0,
  0, 0, 0, 0, 0, 0, 0, 0, 0, 0, 0, 0, 0, 0, 0, 0, 0, 0, 0, 0,
  0, 0, 0, 0, 0, 0, 0, 0, 0, 0, 0, 0, 0, 0, 0, 0, 0, 0, 0, 0,
  0, 0, 0, 0, 0, 0, 0, 0, 0, 0, 0, 0, 0, 0, 0, 0, 0, 0, 0, 0,
  0, 0, 0, 0, 0, 0, 0, 0, 0, 0, 0, 0, 0, 0, 0, 0, 0, 0, 0, 0,
  0, 0, 0, 0, 0, 0, 0, 0, 0, 0, 0, 0, 0, 0, 0, 0, 0, 0, 0, 0,
  0, 0, 0, 0, 0, 0, 0, 0, 0, 0, 0, 0, 0, 0, 0, 0, 0, 0, 0, 0,
  0, 0, 0, 0, 0, 0, 0, 0, 0, 0, 0, 0, 0, 0, 0, 0, 0, 0, 0, 0,
  0, 0, 0, 0, 0, 0, 0, 0, 0, 0, 0, 0, 0, 0, 0, 0, 0, 0, 0, 0,
  0, 0, 0, 0, 0, 0, 0, 0, 0, 0, 0, 0, 0, 0, 0, 0, 0, 0, 0, 0,
  0, 0, 0, 0, 0, 0, 0, 0, 0, 0, 0, 0, 0, 0, 0, 0, 0, 0, 0, 0,
  0, 0, 0, 0, 0, 0, 0, 0, 0, 0, 0, 0, 0, 0, 0, 0, 0, 0, 0, 0,
  0, 0, 0, 0, 0, 0, 0, 0, 0, 0, 0, 0, 0, 0, 0, 0, 0, 0, 0, 0,
  0, 0, 0, 0, 0, 0, 0, 0, 0, 0, 0, 0, 0, 0, 0, 0, 0, 0, 0, 0,
  0, 0, 0, 0, 0, 0, 0, 0, 0, 0, 0, 0, 0, 0, 0, 0, 0, 0, 0, 0,
  0, 0, 0, 0, 0, 0, 0, 0, 0, 0, 0, 0, 0, 0, 0, 0, 0, 0, 0, 0,
  2, 243, 249, 255, 4, 0, 0, 0, 224, 1, 0, 0, 0, 0, 0, 0, 0, 0, 0, 0,
  0, 0, 0, 0, 0, 0, 0, 0, 0, 0, 0, 0, 0, 0, 0, 0, 0, 0, 0, 0,
  0, 0, 0, 0, 0, 0, 0, 0, 0, 0, 0, 0, 0, 0, 0, 0, 0, 0, 0, 0,
  0, 0, 0, 0, 0, 0, 0, 0, 0, 0, 0, 0, 0, 0, 0, 0, 0, 0, 0, 0,
  0, 0, 0, 0, 0, 0, 0, 0, 0, 0, 0, 0, 0, 0, 0, 0, 0, 0, 0, 0,
  0, 0, 0, 0, 0, 0, 0, 0, 0, 0, 0, 0, 0, 0, 0, 0, 0, 0, 0, 0,
  0, 0, 0, 0, 0, 0, 0, 0, 0, 0, 0, 0, 0, 0, 0, 0, 0, 0, 0, 0,
  0, 0, 0, 0, 0, 0, 0, 0, 0, 0, 0, 0, 0, 0, 0, 0, 0, 0, 0, 0,
  0, 0, 0, 0, 0, 0, 0, 0, 0, 0, 0, 0, 0, 0, 0, 0, 0, 0, 0, 0,
  0, 0, 0, 0, 0, 0, 0, 0, 0, 0, 0, 0, 0, 0, 0, 0, 0, 0, 0, 0,
  0, 0, 0, 0, 0, 0, 0, 0, 0, 0, 0, 0, 0, 0, 0, 0, 0, 0, 0, 0,
  0, 0, 0, 0, 0, 0, 0, 0, 0, 0, 0, 0, 0, 0, 0, 0, 0, 0, 0, 0,
  0, 0, 0, 0, 0, 0, 0, 0, 0, 0, 0, 0, 0, 0, 0, 0, 0, 0, 0, 0,
  0, 0, 0, 0, 0, 0, 0, 0, 0, 0, 0, 0, 0, 0, 0, 0, 0, 0, 0, 0,
  0, 0, 0, 0, 0, 0, 0, 0, 0, 0, 0, 0, 0, 0, 0, 0, 0, 0, 0, 0,
  0, 0, 0, 0, 0, 0, 0, 0, 0, 0, 0, 0, 0, 0, 0, 0, 0, 0, 0, 0,
  0, 0, 0, 0, 0, 0, 0, 0, 0, 0, 0, 0, 0, 0, 0, 0, 0, 0, 0, 0,
  0, 0, 0, 0, 0, 0, 0, 0, 0, 0, 0, 0, 0, 0, 0, 0, 0, 0, 0, 0,
  0, 0, 0, 0, 0, 0, 0, 0, 0, 0, 0, 0, 0, 0, 0, 0, 0, 0, 0, 0,
  0, 0, 0, 0, 0, 0, 0, 0, 0, 0, 0, 0, 0, 0, 0, 0, 0, 0, 0, 0,
  0, 0, 0, 0, 0, 0, 0, 0, 0, 0, 0, 0, 0, 0, 0, 0, 0, 0, 0, 0,
  0, 0, 0, 0, 0, 0, 0, 0, 0, 0, 0, 0, 0, 0, 0, 0, 0, 0, 0, 0,
  0, 0, 0, 0, 0, 0, 0, 0, 0, 0, 0, 0, 0, 0, 0, 0, 0, 0, 0, 0,
  0, 0, 0, 0, 0, 0, 0, 0, 0, 0, 0, 0, 0, 0, 0, 0, 0, 0, 0, 0,
  0, 0, 0, 0, 0, 0, 0, 0, 0, 0, 0, 0, 238, 244, 249, 255, 4, 0, 0, 0,
  0, 2, 0, 0, 0, 0, 0, 0, 0, 0, 0, 0, 0, 0, 0, 0, 0, 0, 0, 0,
  0, 0, 0, 0, 0, 0, 0, 0, 0, 0, 0, 0, 0, 0, 0, 0, 0, 0, 0, 0,
  0, 0, 0, 0, 0, 0, 0, 0, 0, 0, 0, 0, 0, 0, 0, 0, 0, 0, 0, 0,
  0, 0, 0, 0, 0, 0, 0, 0, 0, 0, 0, 0, 0, 0, 0, 0, 0, 0, 0, 0,
  0, 0, 0, 0, 0, 0, 0, 0, 0, 0, 0, 0, 0, 0, 0, 0, 0, 0, 0, 0,
  0, 0, 0, 0, 0, 0, 0, 0, 0, 0, 0, 0, 0, 0, 0, 0, 0, 0, 0, 0,
  0, 0, 0, 0, 0, 0, 0, 0, 0, 0, 0, 0, 0, 0, 0, 0, 0, 0, 0, 0,
  0, 0, 0, 0, 0, 0, 0, 0, 0, 0, 0, 0, 0, 0, 0, 0, 0, 0, 0, 0,
  0, 0, 0, 0, 0, 0, 0, 0, 0, 0, 0, 0, 0, 0, 0, 0, 0, 0, 0, 0,
  0, 0, 0, 0, 0, 0, 0, 0, 0, 0, 0, 0, 0, 0, 0, 0, 0, 0, 0, 0,
  0, 0, 0, 0, 0, 0, 0, 0, 0, 0, 0, 0, 0, 0, 0, 0, 0, 0, 0, 0,
  0, 0, 0, 0, 0, 0, 0, 0, 0, 0, 0, 0, 0, 0, 0, 0, 0, 0, 0, 0,
  0, 0, 0, 0, 0, 0, 0, 0, 0, 0, 0, 0, 0, 0, 0, 0, 0, 0, 0, 0,
  0, 0, 0, 0, 0, 0, 0, 0, 0, 0, 0, 0, 0, 0, 0, 0, 0, 0, 0, 0,
  0, 0, 0, 0, 0, 0, 0, 0, 0, 0, 0, 0, 0, 0, 0, 0, 0, 0, 0, 0,
  0, 0, 0, 0, 0, 0, 0, 0, 0, 0, 0, 0, 0, 0, 0, 0, 0, 0, 0, 0,
  0, 0, 0, 0, 0, 0, 0, 0, 0, 0, 0, 0, 0, 0, 0, 0, 0, 0, 0, 0,
  0, 0, 0, 0, 0, 0, 0, 0, 0, 0, 0, 0, 0, 0, 0, 0, 0, 0, 0, 0,
  0, 0, 0, 0, 0, 0, 0, 0, 0, 0, 0, 0, 0, 0, 0, 0, 0, 0, 0, 0,
  0, 0, 0, 0, 0, 0, 0, 0, 0, 0, 0, 0, 0, 0, 0, 0, 0, 0, 0, 0,
  0, 0, 0, 0, 0, 0, 0, 0, 0, 0, 0, 0, 0, 0, 0, 0, 0, 0, 0, 0,
  0, 0, 0, 0, 0, 0, 0, 0, 0, 0, 0, 0, 0, 0, 0, 0, 0, 0, 0, 0,
  0, 0, 0, 0, 0, 0, 0, 0, 0, 0, 0, 0, 0, 0, 0, 0, 0, 0, 0, 0,
  0, 0, 0, 0, 0, 0, 0, 0, 0, 0, 0, 0, 0, 0, 0, 0, 0, 0, 0, 0,
  0, 0, 0, 0, 0, 0, 0, 0, 0, 0, 0, 0, 0, 0, 0, 0, 0, 0, 0, 0,
  0, 0, 0, 0, 0, 0, 0, 0, 0, 0, 0, 0, 0, 0, 0, 0, 250, 246, 249, 255,
  4, 0, 0, 0, 16, 0, 0, 0, 0, 0, 0, 0, 2, 0, 0, 0, 3, 0, 0, 0,
  1, 0, 0, 0, 22, 247, 249, 255, 4, 0, 0, 0, 16, 0, 0, 0, 1, 0, 0, 0,
  2, 0, 0, 0, 192, 0, 0, 0, 32, 0, 0, 0, 50, 247, 249, 255, 4, 0, 0, 0,
  12, 0, 0, 0, 1, 0, 0, 0, 192, 0, 0, 0, 64, 0, 0, 0, 74, 247, 249, 255,
  4, 0, 0, 0, 16, 0, 0, 0, 1, 0, 0, 0, 2, 0, 0, 0, 192, 0, 0, 0,
  64, 0, 0, 0, 102, 247, 249, 255, 4, 0, 0, 0, 12, 0, 0, 0, 1, 0, 0, 0,
  192, 0, 0, 0, 128, 0, 0, 0, 126, 247, 249, 255, 4, 0, 0, 0, 16, 0, 0, 0,
  1, 0, 0, 0, 64, 0, 0, 0, 32, 0, 0, 0, 1, 0, 0, 0, 154, 247, 249, 255,
  4, 0, 0, 0, 0, 32, 1, 0, 0, 4, 0, 4, 5, 254, 252, 252, 1, 255, 0, 8,
  6, 2, 3, 1, 3, 1, 0, 2, 247, 246, 3, 0, 245, 255, 4, 8, 253, 249, 252, 248,
  254, 255, 3, 252, 245, 247, 245, 249, 4, 3, 250, 1, 0, 2, 3, 3, 5, 247, 3, 3,
  4, 237, 0, 249, 4, 253, 4, 21, 0, 254, 3, 255, 249, 253, 15, 0, 218, 253, 15, 6,
  18, 40, 9, 253, 228, 250, 14, 11, 3, 19, 1, 253, 175, 241, 252, 15, 20, 0, 17, 255,
  0, 3, 255, 129, 255, 249, 12, 254, 237, 203, 3, 237, 233, 6, 250, 32, 1, 219, 225, 254,
  7, 13, 213, 72, 238, 243, 228, 245, 6, 8, 48, 20, 252, 255, 10, 8, 0, 0, 0, 0,
  0, 0, 0, 0, 0, 0, 0, 0, 0, 0, 0, 0, 0, 0, 0, 0, 0, 0, 0, 0,
  0, 0, 0, 0, 0, 0, 0, 0, 0, 0, 0, 0, 0, 0, 0, 0, 0, 0, 0, 0,
  0, 0, 0, 0, 0, 0, 0, 0, 0, 0, 0, 0, 0, 0, 0, 0, 0, 0, 0, 0,
  203, 254, 45, 0, 216, 218, 33, 234, 219, 53, 249, 27, 2, 253, 25, 218, 30, 225, 213, 160,
  226, 60, 231, 111, 187, 50, 184, 214, 158, 8, 211, 37, 85, 8, 88, 24, 250, 38, 119, 249,
  64, 2, 129, 184, 248, 27, 255, 8, 105, 57, 70, 234, 83, 179, 162, 5, 240, 35, 227, 183,
  50, 233, 6, 199, 212, 233, 213, 7, 231, 84, 0, 241, 251, 224, 70, 13, 224, 225, 228, 223,
  249, 244, 67, 79, 16, 249, 221, 228, 32, 239, 9, 188, 2, 243, 22, 13, 37, 33, 250, 187,
  253, 31, 10, 36, 228, 5, 40, 147, 73, 244, 228, 61, 235, 59, 225, 187, 229, 204, 225, 234,
  243, 160, 221, 3, 227, 253, 87, 7, 0, 0, 0, 0, 0, 0, 0, 0, 0, 0, 0, 0,
  0, 0, 0, 0, 0, 0, 0, 0, 0, 0, 0, 0, 0, 0, 0, 0, 0, 0, 0, 0,
  0, 0, 0, 0, 0, 0, 0, 0, 0, 0, 0, 0, 0, 0, 0, 0, 0, 0, 0, 0,
  0, 0, 0, 0, 0, 0, 0, 0, 0, 0, 0, 0, 45, 178, 255, 30, 15, 61, 220, 53,
  45, 32, 245, 73, 224, 182, 9, 1, 205, 203, 12, 199, 220, 221, 1, 101, 224, 4, 209, 23,
  245, 14, 252, 28, 19, 78, 178, 23, 242, 209, 251, 34, 229, 116, 252, 32, 42, 15, 66, 19,
  73, 58, 7, 46, 19, 211, 248, 184, 251, 15, 230, 195, 22, 214, 69, 22, 14, 255, 195, 19,
  42, 198, 222, 127, 230, 234, 80, 39, 217, 194, 199, 236, 170, 215, 39, 218, 253, 14, 255, 236,
  211, 86, 45, 234, 62, 242, 3, 247, 153, 20, 215, 73, 5, 7, 234, 34, 167, 112, 62, 241,
  12, 14, 50, 57, 127, 217, 226, 236, 126, 245, 180, 186, 252, 9, 249, 1, 82, 159, 34, 7,
  0, 0, 0, 0, 0, 0, 0, 0, 0, 0, 0, 0, 0, 0, 0, 0, 0, 0, 0, 0,
  0, 0, 0, 0, 0, 0, 0, 0, 0, 0, 0, 0, 0, 0, 0, 0, 0, 0, 0, 0,
  0, 0, 0, 0, 0, 0, 0, 0, 0, 0, 0, 0, 0, 0, 0, 0, 0, 0, 0, 0,
  0, 0, 0, 0, 254, 189, 33, 231, 223, 255, 250, 70, 243, 180, 214, 56, 248, 238, 0, 244,
  25, 252, 19, 75, 8, 240, 47, 58, 91, 35, 79, 244, 217, 0, 226, 29, 153, 241, 234, 28,
  11, 1, 17, 185, 243, 221, 0, 251, 221, 215, 86, 196, 30, 6, 2, 21, 51, 238, 52, 35,
  232, 29, 94, 17, 54, 74, 127, 33, 233, 152, 210, 181, 246, 46, 22, 48, 231, 251, 50, 245,
  54, 239, 214, 24, 45, 238, 4, 45, 251, 248, 229, 18, 104, 21, 39, 215, 2, 58, 98, 42,
  47, 170, 246, 27, 21, 237, 34, 248, 16, 246, 246, 250, 231, 2, 41, 244, 244, 108, 4, 241,
  24, 69, 176, 226, 2, 183, 234, 2, 244, 214, 33, 235, 0, 0, 0, 0, 0, 0, 0, 0,
  0, 0, 0, 0, 0, 0, 0, 0, 0, 0, 0, 0, 0, 0, 0, 0, 0, 0, 0, 0,
  0, 0, 0, 0, 0, 0, 0, 0, 0, 0, 0, 0, 0, 0, 0, 0, 0, 0, 0, 0,
  0, 0, 0, 0, 0, 0, 0, 0, 0, 0, 0, 0, 0, 0, 0, 0, 94, 218, 249, 46,
  3, 143, 238, 21, 209, 1, 90, 33, 231, 253, 245, 243, 25, 208, 239, 225, 57, 241, 8, 249,
  6, 252, 59, 10, 247, 235, 57, 248, 11, 232, 196, 9, 29, 223, 11, 36, 245, 175, 64, 207,
  25, 221, 247, 222, 191, 217, 9, 245, 64, 44, 241, 12, 29, 134, 195, 129, 228, 6, 235, 176,
  21, 17, 11, 253, 33, 190, 215, 236, 246, 227, 91, 225, 29, 191, 42, 14, 14, 2, 251, 6,
  70, 30, 244, 24, 244, 4, 20, 18, 237, 209, 252, 244, 21, 252, 2, 253, 216, 214, 240, 32,
  3, 228, 203, 236, 241, 2, 251, 168, 228, 13, 234, 26, 83, 48, 12, 7, 33, 229, 230, 238,
  245, 33, 254, 244, 0, 0, 0, 0, 0, 0, 0, 0, 0, 0, 0, 0, 0, 0, 0, 0,
  0, 0, 0, 0, 0, 0, 0, 0, 0, 0, 0, 0, 0, 0, 0, 0, 0, 0, 0, 0,
  0, 0, 0, 0, 0, 0, 0, 0, 0, 0, 0, 0, 0, 0, 0, 0, 0, 0, 0, 0,
  0, 0, 0, 0, 0, 0, 0, 0, 27, 129, 168, 251, 226, 244, 226, 0, 255, 72, 19, 231,
  234, 221, 17, 242, 231, 212, 51, 27, 109, 144, 59, 13, 75, 6, 235, 221, 110, 23, 232, 244,
  97, 54, 225, 242, 1, 49, 2, 248, 25, 244, 229, 180, 214, 166, 248, 250, 219, 193, 108, 254,
  47, 236, 179, 5, 19, 10, 102, 22, 78, 65, 14, 11, 27, 219, 228, 44, 232, 68, 251, 212,
  246, 34, 61, 28, 197, 226, 242, 212, 222, 160, 242, 19, 32, 221, 252, 255, 52, 171, 10, 246,
  88, 37, 244, 218, 6, 205, 208, 239, 207, 3, 214, 247, 247, 29, 25, 231, 213, 252, 18, 37,
  246, 249, 35, 203, 211, 193, 13, 218, 49, 250, 4, 74, 26, 11, 232, 31, 0, 0, 0, 0,
  0, 0, 0, 0, 0, 0, 0, 0, 0, 0, 0, 0, 0, 0, 0, 0, 0, 0, 0, 0,
  0, 0, 0, 0, 0, 0, 0, 0, 0, 0, 0, 0, 0, 0, 0, 0, 0, 0, 0, 0,
  0, 0, 0, 0, 0, 0, 0, 0, 0, 0, 0, 0, 0, 0, 0, 0, 0, 0, 0, 0,
  48, 52, 22, 230, 206, 250, 254, 171, 222, 222, 62, 0, 250, 210, 22, 220, 248, 12, 179, 187,
  12, 240, 4, 218, 42, 228, 216, 18, 212, 54, 56, 32, 26, 32, 52, 42, 187, 216, 185, 20,
  4, 200, 228, 60, 0, 198, 230, 12, 8, 83, 0, 202, 6, 69, 244, 159, 214, 230, 171, 171,
  210, 6, 38, 6, 18, 232, 50, 22, 185, 6, 254, 214, 234, 214, 238, 129, 191, 139, 204, 218,
  12, 54, 252, 218, 67, 4, 208, 189, 187, 248, 187, 4, 34, 24, 210, 228, 60, 52, 214, 62,
  240, 12, 28, 181, 185, 153, 200, 58, 12, 218, 65, 250, 232, 147, 153, 8, 232, 109, 222, 208,
  48, 18, 194, 250, 248, 218, 137, 32, 0, 0, 0, 0, 0, 0, 0, 0, 0, 0, 0, 0,
  0, 0, 0, 0, 0, 0, 0, 0, 0, 0, 0, 0, 0, 0, 0, 0, 0, 0, 0, 0,
  0, 0, 0, 0, 0, 0, 0, 0, 0, 0, 0, 0, 0, 0, 0, 0, 0, 0, 0, 0,
  0, 0, 0, 0, 0, 0, 0, 0, 0, 0, 0, 0, 13, 227, 217, 230, 252, 230, 26, 34,
  248, 207, 26, 217, 27, 67, 229, 21, 1, 240, 249, 33, 72, 13, 117, 89, 34, 228, 247, 194,
  251, 53, 37, 35, 59, 3, 253, 248, 38, 251, 3, 231, 211, 11, 248, 242, 40, 10, 63, 12,
  4, 248, 21, 233, 68, 209, 69, 36, 245, 206, 69, 217, 43, 2, 38, 10, 248, 24, 12, 203,
  206, 36, 1, 23, 194, 208, 97, 33, 254, 62, 218, 228, 242, 211, 18, 49, 27, 77, 218, 68,
  127, 36, 21, 14, 249, 184, 245, 63, 18, 190, 91, 11, 233, 37, 243, 11, 26, 235, 219, 232,
  30, 247, 20, 9, 251, 122, 35, 18, 255, 196, 218, 1, 254, 206, 51, 56, 236, 36, 62, 241,
  0, 0, 0, 0, 0, 0, 0, 0, 0, 0, 0, 0, 0, 0, 0, 0, 0, 0, 0, 0,
  0, 0, 0, 0, 0, 0, 0, 0, 0, 0, 0, 0, 0, 0, 0, 0, 0, 0, 0, 0,
  0, 0, 0, 0, 0, 0, 0, 0, 0, 0, 0, 0, 0, 0, 0, 0, 0, 0, 0, 0,
  0, 0, 0, 0, 215, 24, 42, 31, 227, 25, 20, 245, 7, 41, 250, 242, 50, 239, 25, 222,
  252, 32, 230, 238, 16, 241, 245, 20, 241, 252, 222, 36, 255, 243, 242, 206, 4, 230, 6, 235,
  251, 16, 6, 20, 242, 232, 240, 243, 195, 5, 40, 25, 189, 10, 241, 47, 229, 48, 127, 59,
  3, 8, 25, 5, 251, 227, 7, 248, 226, 236, 242, 6, 1, 226, 21, 17, 246, 15, 206, 62,
  43, 22, 14, 18, 12, 15, 247, 210, 50, 26, 22, 251, 238, 212, 224, 233, 20, 230, 251, 236,
  10, 6, 241, 50, 18, 223, 252, 12, 253, 215, 245, 225, 202, 4, 246, 245, 238, 234, 16, 218,
  232, 207, 31, 49, 233, 39, 9, 177, 252, 10, 248, 31, 0, 0, 0, 0, 0, 0, 0, 0,
  0, 0, 0, 0, 0, 0, 0, 0, 0, 0, 0, 0, 0, 0, 0, 0, 0, 0, 0, 0,
  0, 0, 0, 0, 0, 0, 0, 0, 0, 0, 0, 0, 0, 0, 0, 0, 0, 0, 0, 0,
  0, 0, 0, 0, 0, 0, 0, 0, 0, 0, 0, 0, 0, 0, 0, 0, 0, 69, 20, 201,
  228, 254, 9, 3, 9, 255, 53, 171, 218, 236, 7, 220, 90, 212, 227, 19, 242, 45, 129, 197,
  252, 5, 33, 16, 92, 77, 7, 9, 37, 245, 226, 211, 252, 22, 24, 28, 245, 83, 69, 232,
  255, 15, 248, 247, 25, 252, 205, 226, 23, 27, 225, 6, 53, 233, 203, 250, 24, 229, 217, 243,
  72, 230, 40, 42, 13, 36, 53, 77, 22, 250, 38, 254, 159, 192, 4, 226, 81, 183, 232, 37,
  160, 179, 185, 31, 46, 217, 70, 74, 215, 38, 244, 254, 17, 218, 232, 198, 167, 64, 224, 32,
  246, 108, 243, 5, 242, 251, 16, 247, 6, 11, 170, 208, 179, 248, 56, 219, 61, 243, 189, 254,
  12, 238, 157, 18, 0, 0, 0, 0, 0, 0, 0, 0, 0, 0, 0, 0, 0, 0, 0, 0,
  0, 0, 0, 0, 0, 0, 0, 0, 0, 0, 0, 0, 0, 0, 0, 0, 0, 0, 0, 0,
  0, 0, 0, 0, 0, 0, 0, 0, 0, 0, 0, 0, 0, 0, 0, 0, 0, 0, 0, 0,
  0, 0, 0, 0, 0, 0, 0, 0, 242, 219, 224, 13, 242, 208, 2, 249, 255, 69, 21, 255,
  247, 1, 230, 238, 46, 12, 255, 211, 231, 241, 194, 6, 21, 13, 45, 19, 3, 48, 18, 250,
  248, 243, 16, 9, 244, 1, 247, 2, 252, 52, 223, 17, 255, 9, 16, 235, 255, 223, 239, 252,
  0, 42, 65, 223, 240, 241, 243, 23, 234, 13, 1, 250, 254, 209, 237, 34, 241, 190, 8, 36,
  231, 238, 235, 41, 203, 241, 228, 18, 47, 11, 10, 225, 215, 163, 216, 213, 30, 31, 21, 245,
  129, 42, 3, 9, 213, 44, 30, 32, 32, 41, 236, 230, 16, 44, 244, 237, 221, 29, 81, 194,
  53, 176, 5, 237, 28, 54, 97, 69, 9, 10, 229, 65, 208, 26, 12, 246, 0, 0, 0, 0,
  0, 0, 0, 0, 0, 0, 0, 0, 0, 0, 0, 0, 0, 0, 0, 0, 0, 0, 0, 0,
  0, 0, 0, 0, 0, 0, 0, 0, 0, 0, 0, 0, 0, 0, 0, 0, 0, 0, 0, 0,
  0, 0, 0, 0, 0, 0, 0, 0, 0, 0, 0, 0, 0, 0, 0, 0, 0, 0, 0, 0,
  52, 41, 241, 68, 64, 0, 246, 96, 230, 38, 0, 233, 6, 227, 244, 58, 127, 223, 21, 255,
  75, 44, 33, 25, 91, 11, 24, 250, 53, 246, 8, 184, 17, 12, 15, 38, 219, 2, 5, 187,
  1, 239, 29, 223, 186, 252, 245, 1, 241, 17, 209, 180, 248, 183, 2, 2, 17, 46, 46, 73,
  245, 40, 204, 61, 45, 254, 237, 60, 194, 73, 188, 250, 205, 229, 93, 73, 79, 73, 3, 207,
  214, 209, 23, 246, 92, 242, 246, 106, 156, 253, 74, 252, 231, 188, 52, 0, 246, 135, 24, 247,
  16, 6, 251, 225, 3, 182, 79, 48, 192, 21, 5, 106, 165, 250, 56, 178, 229, 54, 54, 41,
  79, 211, 74, 86, 53, 34, 198, 43, 0, 0, 0, 0, 0, 0, 0, 0, 0, 0, 0, 0,
  0, 0, 0, 0, 0, 0, 0, 0, 0, 0, 0, 0, 0, 0, 0, 0, 0, 0, 0, 0,
  0, 0, 0, 0, 0, 0, 0, 0, 0, 0, 0, 0, 0, 0, 0, 0, 0, 0, 0, 0,
  0, 0, 0, 0, 0, 0, 0, 0, 0, 0, 0, 0, 7, 37, 246, 252, 251, 40, 12, 249,
  34, 18, 11, 239, 251, 225, 255, 18, 6, 213, 213, 217, 245, 239, 187, 197, 251, 42, 249, 38,
  255, 24, 255, 238, 250, 9, 222, 231, 212, 247, 246, 27, 2, 8, 52, 246, 250, 37, 250, 29,
  55, 18, 242, 219, 201, 240, 190, 249, 252, 202, 26, 47, 84, 232, 234, 7, 253, 34, 56, 9,
  234, 229, 217, 27, 113, 118, 222, 41, 66, 205, 11, 43, 218, 18, 196, 222, 11, 194, 129, 237,
  229, 28, 1, 6, 203, 239, 7, 75, 5, 27, 194, 51, 170, 236, 30, 233, 250, 34, 242, 182,
  38, 63, 90, 2, 45, 219, 207, 81, 19, 4, 244, 159, 12, 25, 79, 251, 205, 181, 181, 6,
  0, 0, 0, 0, 0, 0, 0, 0, 0, 0, 0, 0, 0, 0, 0, 0, 0, 0, 0, 0,
  0, 0, 0, 0, 0, 0, 0, 0, 0, 0, 0, 0, 0, 0, 0, 0, 0, 0, 0, 0,
  0, 0, 0, 0, 0, 0, 0, 0, 0, 0, 0, 0, 0, 0, 0, 0, 0, 0, 0, 0,
  0, 0, 0, 0, 69, 53, 215, 194, 68, 244, 6, 1, 7, 6, 9, 221, 56, 9, 12, 27,
  251, 24, 247, 243, 225, 20, 4, 129, 240, 47, 54, 237, 241, 252, 239, 16, 255, 18, 29, 21,
  14, 215, 17, 231, 27, 251, 233, 70, 10, 9, 207, 247, 235, 216, 245, 248, 237, 225, 188, 238,
  248, 2, 49, 223, 33, 48, 17, 20, 20, 232, 236, 33, 200, 14, 19, 18, 7, 9, 229, 223,
  33, 238, 7, 224, 43, 15, 245, 251, 230, 250, 250, 31, 243, 37, 70, 8, 29, 10, 234, 42,
  237, 2, 238, 221, 220, 1, 14, 7, 238, 196, 240, 218, 0, 2, 242, 245, 22, 13, 13, 230,
  242, 225, 34, 230, 252, 220, 251, 41, 3, 17, 245, 215, 0, 0, 0, 0, 0, 0, 0, 0,
  0, 0, 0, 0, 0, 0, 0, 0, 0, 0, 0, 0, 0, 0, 0, 0, 0, 0, 0, 0,
  0, 0, 0, 0, 0, 0, 0, 0, 0, 0, 0, 0, 0, 0, 0, 0, 0, 0, 0, 0,
  0, 0, 0, 0, 0, 0, 0, 0, 0, 0, 0, 0, 0, 0, 0, 0, 34, 73, 71, 43,
  88, 30, 23, 23, 18, 241, 39, 241, 234, 0, 0, 227, 206, 127, 7, 233, 242, 196, 59, 136,
  82, 15, 26, 225, 31, 2, 246, 242, 244, 79, 200, 14, 38, 165, 216, 8, 236, 175, 6, 24,
  232, 255, 12, 1, 247, 229, 11, 254, 220, 215, 69, 75, 12, 232, 229, 222, 31, 11, 8, 40,
  224, 3, 12, 62, 12, 23, 252, 245, 247, 0, 236, 217, 22, 48, 22, 246, 248, 174, 33, 10,
  13, 10, 218, 1, 239, 241, 220, 0, 32, 0, 226, 213, 231, 24, 232, 248, 235, 41, 58, 235,
  21, 65, 243, 234, 225, 222, 254, 254, 34, 251, 245, 241, 160, 239, 36, 42, 224, 1, 47, 247,
  244, 10, 3, 13, 0, 0, 0, 0, 0, 0, 0, 0, 0, 0, 0, 0, 0, 0, 0, 0,
  0, 0, 0, 0, 0, 0, 0, 0, 0, 0, 0, 0, 0, 0, 0, 0, 0, 0, 0, 0,
  0, 0, 0, 0, 0, 0, 0, 0, 0, 0, 0, 0, 0, 0, 0, 0, 0, 0, 0, 0,
  0, 0, 0, 0, 0, 0, 0, 0, 20, 250, 8, 0, 3, 1, 14, 3, 25, 23, 4, 246,
  238, 6, 10, 239, 253, 6, 246, 10, 229, 7, 214, 6, 6, 14, 250, 18, 0, 248, 6, 18,
  246, 10, 239, 233, 231, 252, 236, 243, 253, 16, 6, 0, 249, 6, 13, 3, 4, 4, 205, 7,
  239, 6, 248, 249, 252, 7, 243, 253, 0, 1, 243, 6, 23, 32, 14, 23, 195, 242, 25, 221,
  42, 127, 239, 146, 161, 245, 4, 255, 1, 31, 0, 8, 229, 0, 66, 3, 25, 10, 0, 246,
  169, 6, 229, 164, 4, 23, 238, 231, 147, 245, 73, 24, 44, 75, 243, 6, 255, 194, 236, 224,
  24, 202, 130, 120, 44, 37, 17, 205, 7, 24, 54, 255, 7, 229, 194, 255, 0, 0, 0, 0,
  0, 0, 0, 0, 0, 0, 0, 0, 0, 0, 0, 0, 0, 0, 0, 0, 0, 0, 0, 0,
  0, 0, 0, 0, 0, 0, 0, 0, 0, 0, 0, 0, 0, 0, 0, 0, 0, 0, 0, 0,
  0, 0, 0, 0, 0, 0, 0, 0, 0, 0, 0, 0, 0, 0, 0, 0, 0, 0, 0, 0,
  241, 0, 82, 106, 51, 44, 20, 66, 206, 44, 117, 10, 9, 9, 206, 10, 211, 8, 206, 246,
  131, 179, 68, 177, 22, 243, 22, 16, 247, 127, 177, 255, 75, 236, 66, 244, 172, 57, 165, 220,
  239, 240, 201, 236, 22, 5, 36, 202, 77, 244, 36, 224, 201, 24, 214, 227, 250, 239, 61, 223,
  58, 220, 72, 31, 202, 186, 50, 79, 29, 15, 250, 81, 89, 241, 1, 15, 224, 182, 18, 36,
  106, 218, 1, 35, 180, 10, 13, 38, 13, 3, 57, 68, 231, 32, 205, 209, 69, 45, 243, 251,
  246, 205, 233, 255, 187, 210, 235, 31, 53, 28, 228, 248, 43, 24, 248, 82, 6, 226, 42, 255,
  250, 236, 28, 206, 63, 225, 107, 7, 0, 0, 0, 0, 0, 0, 0, 0, 0, 0, 0, 0,
  0, 0, 0, 0, 0, 0, 0, 0, 0, 0, 0, 0, 0, 0, 0, 0, 0, 0, 0, 0,
  0, 0, 0, 0, 0, 0, 0, 0, 0, 0, 0, 0, 0, 0, 0, 0, 0, 0, 0, 0,
  0, 0, 0, 0, 0, 0, 0, 0, 0, 0, 0, 0, 48, 253, 231, 65, 250, 5, 39, 229,
  45, 47, 2, 50, 229, 249, 26, 217, 225, 7, 204, 240, 218, 239, 182, 237, 162, 253, 44, 3,
  17, 39, 195, 199, 30, 21, 207, 4, 129, 219, 222, 2, 241, 65, 254, 17, 5, 244, 52, 20,
  199, 31, 46, 42, 194, 8, 38, 183, 51, 239, 209, 45, 231, 213, 199, 0, 9, 215, 166, 21,
  32, 23, 245, 42, 156, 236, 102, 35, 215, 5, 239, 22, 15, 175, 221, 9, 12, 246, 134, 15,
  167, 88, 35, 86, 50, 9, 8, 252, 220, 248, 194, 234, 16, 2, 250, 229, 11, 181, 62, 19,
  55, 80, 43, 41, 36, 23, 193, 211, 152, 10, 223, 78, 68, 12, 17, 248, 14, 1, 254, 243,
  0, 0, 0, 0, 0, 0, 0, 0, 0, 0, 0, 0, 0, 0, 0, 0, 0, 0, 0, 0,
  0, 0, 0, 0, 0, 0, 0, 0, 0, 0, 0, 0, 0, 0, 0, 0, 0, 0, 0, 0,
  0, 0, 0, 0, 0, 0, 0, 0, 0, 0, 0, 0, 0, 0, 0, 0, 0, 0, 0, 0,
  0, 0, 0, 0, 9, 240, 51, 5, 58, 22, 34, 255, 2, 20, 29, 200, 11, 0, 11, 225,
  212, 10, 238, 47, 222, 224, 13, 41, 239, 250, 220, 2, 67, 38, 240, 225, 233, 234, 234, 8,
  26, 49, 254, 241, 35, 44, 250, 210, 255, 21, 53, 252, 10, 249, 61, 78, 191, 59, 45, 37,
  0, 238, 250, 2, 2, 245, 239, 0, 1, 252, 253, 42, 43, 24, 248, 233, 238, 9, 210, 200,
  47, 21, 228, 10, 249, 6, 1, 42, 19, 23, 39, 224, 248, 236, 251, 251, 60, 22, 2, 204,
  6, 45, 42, 251, 33, 44, 49, 232, 6, 20, 8, 193, 0, 225, 243, 26, 38, 235, 30, 238,
  4, 235, 127, 34, 240, 11, 251, 250, 232, 5, 11, 2, 0, 0, 0, 0, 0, 0, 0, 0,
  0, 0, 0, 0, 0, 0, 0, 0, 0, 0, 0, 0, 0, 0, 0, 0, 0, 0, 0, 0,
  0, 0, 0, 0, 0, 0, 0, 0, 0, 0, 0, 0, 0, 0, 0, 0, 0, 0, 0, 0,
  0, 0, 0, 0, 0, 0, 0, 0, 0, 0, 0, 0, 0, 0, 0, 0, 14, 8, 218, 251,
  5, 242, 24, 57, 38, 84, 166, 208, 40, 243, 43, 234, 254, 218, 44, 23, 233, 215, 219, 187,
  247, 219, 226, 68, 2, 48, 218, 204, 250, 175, 253, 34, 235, 237, 218, 1, 20, 253, 8, 54,
  0, 40, 254, 30, 174, 223, 254, 233, 228, 236, 215, 249, 27, 246, 218, 124, 35, 33, 195, 51,
  9, 249, 244, 176, 103, 15, 209, 26, 31, 56, 254, 129, 104, 242, 212, 29, 194, 196, 204, 209,
  89, 33, 98, 164, 187, 211, 227, 5, 14, 219, 220, 35, 212, 227, 229, 81, 20, 248, 43, 254,
  8, 19, 9, 218, 244, 11, 189, 44, 2, 69, 238, 176, 4, 250, 147, 221, 252, 81, 177, 60,
  214, 229, 223, 34, 0, 0, 0, 0, 0, 0, 0, 0, 0, 0, 0, 0, 0, 0, 0, 0,
  0, 0, 0, 0, 0, 0, 0, 0, 0, 0, 0, 0, 0, 0, 0, 0, 0, 0, 0, 0,
  0, 0, 0, 0, 0, 0, 0, 0, 0, 0, 0, 0, 0, 0, 0, 0, 0, 0, 0, 0,
  0, 0, 0, 0, 0, 0, 0, 0, 243, 10, 231, 253, 31, 233, 25, 234, 253, 235, 21, 250,
  8, 246, 8, 27, 243, 250, 243, 244, 24, 243, 238, 69, 254, 247, 47, 243, 3, 199, 235, 210,
  27, 39, 236, 23, 249, 249, 235, 5, 217, 235, 255, 254, 231, 251, 33, 0, 10, 38, 10, 36,
  13, 221, 239, 35, 0, 231, 243, 195, 254, 240, 182, 250, 17, 218, 20, 2, 8, 251, 8, 22,
  244, 214, 127, 182, 10, 228, 254, 198, 16, 39, 199, 5, 15, 153, 1, 60, 15, 233, 251, 36,
  234, 36, 211, 221, 189, 234, 227, 240, 248, 24, 188, 17, 226, 12, 242, 250, 40, 235, 6, 188,
  198, 15, 90, 79, 214, 2, 202, 253, 20, 3, 1, 216, 254, 33, 15, 232, 0, 0, 0, 0,
  0, 0, 0, 0, 0, 0, 0, 0, 0, 0, 0, 0, 0, 0, 0, 0, 0, 0, 0, 0,
  0, 0, 0, 0, 0, 0, 0, 0, 0, 0, 0, 0, 0, 0, 0, 0, 0, 0, 0, 0,
  0, 0, 0, 0, 0, 0, 0, 0, 0, 0, 0, 0, 0, 0, 0, 0, 0, 0, 0, 0,
  12, 4, 212, 14, 58, 105, 230, 198, 204, 238, 10, 252, 16, 48, 67, 250, 222, 179, 73, 75,
  4, 220, 175, 20, 167, 171, 20, 218, 129, 58, 73, 105, 185, 226, 226, 242, 240, 48, 4, 4,
  8, 220, 246, 234, 40, 12, 189, 83, 14, 185, 6, 234, 220, 226, 26, 26, 202, 238, 234, 250,
  4, 250, 242, 18, 244, 248, 62, 46, 79, 89, 32, 60, 206, 242, 93, 18, 246, 214, 246, 44,
  228, 161, 65, 232, 214, 252, 252, 56, 234, 238, 101, 236, 18, 145, 10, 40, 6, 220, 38, 4,
  236, 50, 4, 234, 224, 194, 236, 12, 189, 240, 212, 248, 12, 14, 240, 189, 206, 202, 222, 10,
  234, 208, 151, 161, 240, 18, 67, 28, 0, 0, 0, 0, 0, 0, 0, 0, 0, 0, 0, 0,
  0, 0, 0, 0, 0, 0, 0, 0, 0, 0, 0, 0, 0, 0, 0, 0, 0, 0, 0, 0,
  0, 0, 0, 0, 0, 0, 0, 0, 0, 0, 0, 0, 0, 0, 0, 0, 0, 0, 0, 0,
  0, 0, 0, 0, 0, 0, 0, 0, 0, 0, 0, 0, 5, 27, 206, 254, 235, 240, 15, 171,
  1, 76, 2, 38, 5, 6, 250, 250, 61, 228, 23, 238, 235, 170, 237, 243, 254, 23, 225, 251,
  78, 14, 213, 219, 172, 6, 229, 239, 249, 10, 26, 2, 71, 243, 16, 42, 253, 211, 51, 1,
  51, 75, 223, 236, 230, 253, 14, 44, 246, 230, 242, 192, 253, 47, 16, 255, 247, 34, 34, 5,
  144, 0, 9, 252, 255, 98, 27, 47, 40, 251, 19, 248, 111, 251, 23, 21, 6, 187, 234, 154,
  251, 34, 22, 9, 87, 209, 179, 23, 152, 40, 52, 23, 25, 31, 14, 6, 47, 17, 233, 33,
  229, 199, 105, 40, 73, 127, 63, 41, 49, 44, 6, 50, 2, 47, 242, 174, 24, 23, 254, 196,
  0, 0, 0, 0, 0, 0, 0, 0, 0, 0, 0, 0, 0, 0, 0, 0, 0, 0, 0, 0,
  0, 0, 0, 0, 0, 0, 0, 0, 0, 0, 0, 0, 0, 0, 0, 0, 0, 0, 0, 0,
  0, 0, 0, 0, 0, 0, 0, 0, 0, 0, 0, 0, 0, 0, 0, 0, 0, 0, 0, 0,
  0, 0, 0, 0, 45, 205, 65, 41, 221, 82, 72, 47, 4, 47, 239, 184, 242, 19, 31, 233,
  24, 53, 214, 229, 240, 236, 173, 225, 45, 230, 11, 40, 50, 29, 213, 236, 19, 220, 5, 219,
  174, 78, 16, 5, 203, 6, 236, 33, 249, 65, 19, 23, 2, 246, 5, 3, 180, 232, 229, 19,
  239, 249, 100, 213, 208, 12, 254, 5, 221, 67, 222, 242, 19, 196, 13, 27, 20, 248, 204, 5,
  1, 226, 239, 22, 247, 83, 11, 47, 51, 53, 255, 189, 15, 179, 224, 228, 220, 55, 248, 180,
  69, 14, 214, 25, 97, 207, 31, 22, 18, 244, 22, 25, 218, 74, 252, 198, 247, 49, 10, 20,
  33, 127, 250, 58, 206, 242, 220, 224, 40, 22, 47, 8, 0, 0, 0, 0, 0, 0, 0, 0,
  0, 0, 0, 0, 0, 0, 0, 0, 0, 0, 0, 0, 0, 0, 0, 0, 0, 0, 0, 0,
  0, 0, 0, 0, 0, 0, 0, 0, 0, 0, 0, 0, 0, 0, 0, 0, 0, 0, 0, 0,
  0, 0, 0, 0, 0, 0, 0, 0, 0, 0, 0, 0, 0, 0, 0, 0, 33, 245, 199, 18,
  12, 20, 58, 43, 16, 204, 25, 18, 212, 20, 240, 237, 40, 241, 186, 24, 241, 255, 15, 255,
  55, 62, 28, 51, 35, 253, 210, 175, 218, 20, 22, 214, 227, 12, 19, 218, 26, 51, 244, 56,
  227, 33, 189, 243, 246, 20, 181, 248, 187, 15, 20, 247, 9, 254, 240, 15, 229, 255, 191, 244,
  2, 235, 228, 3, 129, 42, 102, 30, 33, 84, 40, 54, 173, 218, 39, 11, 92, 225, 183, 49,
  180, 183, 133, 204, 116, 48, 10, 45, 26, 249, 236, 166, 201, 9, 231, 200, 216, 253, 235, 4,
  239, 33, 245, 18, 2, 83, 195, 2, 16, 211, 177, 36, 178, 11, 25, 222, 243, 16, 19, 222,
  246, 13, 164, 252, 0, 0, 0, 0, 0, 0, 0, 0, 0, 0, 0, 0, 0, 0, 0, 0,
  0, 0, 0, 0, 0, 0, 0, 0, 0, 0, 0, 0, 0, 0, 0, 0, 0, 0, 0, 0,
  0, 0, 0, 0, 0, 0, 0, 0, 0, 0, 0, 0, 0, 0, 0, 0, 0, 0, 0, 0,
  0, 0, 0, 0, 0, 0, 0, 0, 235, 40, 74, 19, 225, 232, 221, 243, 4, 179, 6, 240,
  14, 47, 230, 243, 71, 205, 238, 30, 252, 230, 254, 40, 154, 207, 250, 246, 254, 31, 240, 3,
  19, 18, 80, 9, 228, 36, 43, 221, 223, 45, 238, 250, 21, 224, 247, 234, 244, 27, 255, 54,
  43, 247, 36, 247, 30, 8, 1, 218, 44, 27, 26, 252, 129, 9, 177, 193, 202, 224, 251, 178,
  223, 5, 164, 238, 44, 232, 248, 252, 63, 245, 231, 10, 23, 20, 13, 71, 245, 11, 46, 226,
  186, 209, 0, 40, 103, 210, 58, 35, 252, 35, 210, 32, 20, 242, 55, 155, 35, 242, 236, 68,
  251, 64, 51, 2, 3, 227, 63, 13, 202, 34, 241, 23, 226, 16, 22, 241, 0, 0, 0, 0,
  0, 0, 0, 0, 0, 0, 0, 0, 0, 0, 0, 0, 0, 0, 0, 0, 0, 0, 0, 0,
  0, 0, 0, 0, 0, 0, 0, 0, 0, 0, 0, 0, 0, 0, 0, 0, 0, 0, 0, 0,
  0, 0, 0, 0, 0, 0, 0, 0, 0, 0, 0, 0, 0, 0, 0, 0, 0, 0, 0, 0,
  76, 241, 5, 110, 213, 33, 253, 233, 239, 67, 248, 50, 217, 225, 67, 223, 247, 129, 57, 19,
  239, 233, 199, 234, 216, 225, 59, 20, 15, 233, 250, 3, 194, 8, 220, 11, 220, 28, 245, 31,
  251, 245, 73, 165, 231, 254, 160, 3, 248, 189, 241, 248, 177, 12, 253, 5, 8, 175, 158, 219,
  230, 23, 182, 39, 29, 196, 39, 116, 29, 48, 36, 11, 254, 70, 8, 39, 214, 208, 87, 231,
  31, 182, 26, 233, 200, 227, 200, 244, 163, 214, 3, 45, 248, 0, 251, 251, 228, 217, 211, 14,
  188, 0, 202, 19, 222, 237, 22, 202, 234, 33, 182, 245, 17, 230, 194, 203, 227, 37, 244, 14,
  11, 202, 188, 188, 247, 28, 166, 46, 0, 0, 0, 0, 0, 0, 0, 0, 0, 0, 0, 0,
  0, 0, 0, 0, 0, 0, 0, 0, 0, 0, 0, 0, 0, 0, 0, 0, 0, 0, 0, 0,
  0, 0, 0, 0, 0, 0, 0, 0, 0, 0, 0, 0, 0, 0, 0, 0, 0, 0, 0, 0,
  0, 0, 0, 0, 0, 0, 0, 0, 0, 0, 0, 0, 12, 253, 254, 229, 245, 4, 217, 0,
  7, 4, 45, 251, 249, 26, 251, 50, 254, 1, 1, 57, 0, 246, 222, 225, 24, 14, 245, 253,
  206, 67, 255, 241, 34, 52, 28, 16, 11, 226, 1, 219, 10, 19, 5, 236, 254, 0, 212, 12,
  242, 254, 38, 6, 7, 37, 47, 32, 28, 216, 214, 220, 252, 28, 23, 16, 3, 54, 6, 231,
  252, 212, 243, 232, 16, 249, 25, 248, 5, 223, 3, 7, 10, 0, 253, 249, 36, 14, 234, 224,
  18, 18, 23, 9, 255, 21, 252, 31, 58, 190, 220, 27, 237, 248, 245, 7, 236, 68, 242, 193,
  8, 244, 220, 5, 4, 18, 19, 12, 1, 9, 237, 47, 221, 47, 129, 255, 10, 245, 6, 9,
  0, 0, 0, 0, 0, 0, 0, 0, 0, 0, 0, 0, 0, 0, 0, 0, 0, 0, 0, 0,
  0, 0, 0, 0, 0, 0, 0, 0, 0, 0, 0, 0, 0, 0, 0, 0, 0, 0, 0, 0,
  0, 0, 0, 0, 0, 0, 0, 0, 0, 0, 0, 0, 0, 0, 0, 0, 0, 0, 0, 0,
  0, 0, 0, 0, 254, 245, 240, 238, 42, 38, 8, 247, 193, 10, 11, 37, 22, 25, 38, 255,
  242, 223, 235, 246, 194, 235, 244, 194, 219, 61, 253, 236, 213, 18, 9, 234, 247, 235, 249, 222,
  214, 228, 217, 255, 224, 45, 7, 250, 13, 206, 3, 242, 11, 230, 28, 245, 229, 54, 165, 254,
  43, 15, 44, 24, 4, 20, 197, 17, 76, 237, 247, 51, 23, 37, 57, 90, 255, 21, 48, 231,
  1, 11, 24, 185, 34, 11, 8, 238, 235, 213, 171, 27, 229, 38, 51, 7, 46, 35, 7, 216,
  218, 221, 218, 211, 172, 11, 155, 7, 191, 223, 230, 14, 64, 4, 127, 23, 240, 236, 173, 141,
  145, 0, 19, 176, 52, 225, 8, 52, 15, 3, 151, 19, 0, 0, 0, 0, 0, 0, 0, 0,
  0, 0, 0, 0, 0, 0, 0, 0, 0, 0, 0, 0, 0, 0, 0, 0, 0, 0, 0, 0,
  0, 0, 0, 0, 0, 0, 0, 0, 0, 0, 0, 0, 0, 0, 0, 0, 0, 0, 0, 0,
  0, 0, 0, 0, 0, 0, 0, 0, 0, 0, 0, 0, 0, 0, 0, 0, 31, 14, 229, 29,
  31, 222, 1, 20, 250, 59, 22, 235, 173, 220, 88, 247, 227, 185, 247, 18, 8, 190, 183, 62,
  194, 249, 94, 36, 182, 81, 7, 207, 255, 212, 251, 25, 234, 62, 230, 254, 46, 194, 225, 76,
  208, 64, 51, 234, 114, 185, 26, 16, 187, 185, 75, 21, 21, 251, 214, 61, 251, 22, 121, 39,
  210, 27, 157, 5, 32, 241, 252, 24, 205, 38, 31, 4, 182, 242, 42, 74, 218, 173, 69, 52,
  255, 165, 205, 65, 234, 229, 59, 229, 164, 116, 78, 223, 181, 254, 73, 54, 86, 9, 214, 237,
  85, 194, 215, 51, 180, 31, 46, 247, 96, 224, 72, 39, 11, 207, 75, 61, 228, 31, 195, 94,
  203, 42, 127, 217, 0, 0, 0, 0, 0, 0, 0, 0, 0, 0, 0, 0, 0, 0, 0, 0,
  0, 0, 0, 0, 0, 0, 0, 0, 0, 0, 0, 0, 0, 0, 0, 0, 0, 0, 0, 0,
  0, 0, 0, 0, 0, 0, 0, 0, 0, 0, 0, 0, 0, 0, 0, 0, 0, 0, 0, 0,
  0, 0, 0, 0, 0, 0, 0, 0, 233, 215, 2, 27, 254, 25, 8, 237, 250, 3, 202, 30,
  244, 6, 8, 237, 43, 235, 198, 240, 13, 255, 223, 246, 250, 180, 215, 25, 254, 44, 15, 32,
  17, 12, 34, 230, 224, 239, 23, 217, 53, 245, 249, 42, 4, 0, 249, 24, 36, 228, 13, 30,
  205, 213, 237, 213, 251, 233, 51, 33, 38, 222, 240, 218, 195, 254, 217, 158, 10, 237, 250, 3,
  31, 55, 253, 8, 218, 252, 9, 253, 45, 65, 218, 211, 20, 11, 233, 218, 13, 71, 0, 22,
  18, 67, 56, 11, 31, 49, 3, 33, 33, 239, 213, 221, 255, 222, 242, 39, 237, 226, 172, 85,
  216, 5, 250, 60, 17, 209, 127, 233, 217, 106, 233, 31, 41, 202, 255, 6, 0, 0, 0, 0,
  0, 0, 0, 0, 0, 0, 0, 0, 0, 0, 0, 0, 0, 0, 0, 0, 0, 0, 0, 0,
  0, 0, 0, 0, 0, 0, 0, 0, 0, 0, 0, 0, 0, 0, 0, 0, 0, 0, 0, 0,
  0, 0, 0, 0, 0, 0, 0, 0, 0, 0, 0, 0, 0, 0, 0, 0, 0, 0, 0, 0,
  7, 228, 24, 12, 249, 41, 211, 14, 37, 14, 7, 25, 178, 238, 3, 4, 13, 224, 222, 7,
  4, 22, 226, 234, 221, 238, 245, 15, 2, 249, 10, 206, 0, 243, 236, 30, 214, 3, 230, 204,
  233, 243, 25, 227, 17, 236, 30, 200, 247, 255, 230, 3, 236, 222, 42, 251, 245, 240, 12, 217,
  236, 248, 238, 14, 33, 220, 11, 35, 251, 224, 205, 60, 9, 217, 20, 196, 134, 218, 19, 247,
  212, 16, 218, 2, 221, 127, 254, 17, 173, 238, 244, 2, 69, 29, 13, 32, 223, 12, 219, 52,
  225, 237, 188, 240, 4, 201, 231, 0, 221, 53, 15, 240, 253, 57, 241, 216, 242, 226, 46, 2,
  231, 249, 201, 247, 5, 221, 199, 64, 0, 0, 0, 0, 0, 0, 0, 0, 0, 0, 0, 0,
  0, 0, 0, 0, 0, 0, 0, 0, 0, 0, 0, 0, 0, 0, 0, 0, 0, 0, 0, 0,
  0, 0, 0, 0, 0, 0, 0, 0, 0, 0, 0, 0, 0, 0, 0, 0, 0, 0, 0, 0,
  0, 0, 0, 0, 0, 0, 0, 0, 0, 0, 0, 0, 254, 186, 28, 255, 247, 37, 205, 200,
  211, 225, 59, 168, 253, 8, 14, 11, 247, 237, 32, 62, 14, 46, 17, 189, 6, 5, 29, 225,
  79, 65, 239, 29, 208, 205, 248, 241, 17, 238, 18, 224, 18, 204, 249, 246, 213, 206, 245, 26,
  217, 195, 35, 17, 196, 127, 214, 246, 36, 11, 183, 217, 207, 6, 222, 36, 51, 195, 91, 82,
  0, 41, 7, 11, 25, 250, 27, 251, 241, 48, 57, 9, 22, 189, 248, 0, 242, 33, 237, 14,
  200, 26, 44, 77, 64, 74, 214, 216, 238, 29, 234, 216, 189, 14, 230, 236, 244, 24, 219, 202,
  32, 3, 194, 10, 246, 17, 254, 10, 148, 15, 23, 246, 74, 194, 199, 219, 20, 10, 14, 34,
  0, 0, 0, 0, 0, 0, 0, 0, 0, 0, 0, 0, 0, 0, 0, 0, 0, 0, 0, 0,
  0, 0, 0, 0, 0, 0, 0, 0, 0, 0, 0, 0, 0, 0, 0, 0, 0, 0, 0, 0,
  0, 0, 0, 0, 0, 0, 0, 0, 0, 0, 0, 0, 0, 0, 0, 0, 0, 0, 0, 0,
  0, 0, 0, 0, 16, 19, 10, 253, 236, 225, 45, 8, 250, 251, 2, 247, 57, 1, 252, 245,
  15, 8, 7, 248, 228, 231, 214, 247, 7, 254, 240, 211, 246, 252, 255, 36, 236, 15, 30, 249,
  243, 243, 18, 27, 239, 239, 236, 11, 251, 253, 210, 22, 20, 232, 18, 38, 0, 18, 254, 227,
  234, 1, 242, 29, 26, 226, 254, 22, 17, 29, 26, 24, 239, 18, 62, 238, 31, 107, 253, 129,
  169, 2, 10, 248, 4, 8, 16, 244, 201, 248, 3, 237, 14, 10, 25, 47, 189, 46, 246, 201,
  199, 38, 252, 189, 174, 240, 8, 15, 17, 55, 7, 28, 221, 236, 8, 205, 35, 252, 181, 112,
  31, 59, 21, 218, 20, 251, 43, 11, 239, 12, 12, 237, 0, 0, 0, 0, 0, 0, 0, 0,
  0, 0, 0, 0, 0, 0, 0, 0, 0, 0, 0, 0, 0, 0, 0, 0, 0, 0, 0, 0,
  0, 0, 0, 0, 0, 0, 0, 0, 0, 0, 0, 0, 0, 0, 0, 0, 0, 0, 0, 0,
  0, 0, 0, 0, 0, 0, 0, 0, 0, 0, 0, 0, 0, 0, 0, 0, 68, 229, 204, 248,
  31, 51, 8, 13, 51, 11, 90, 227, 3, 99, 37, 216, 186, 236, 43, 28, 235, 193, 233, 15,
  29, 237, 7, 39, 228, 235, 15, 253, 35, 217, 204, 11, 219, 92, 237, 7, 233, 36, 45, 5,
  213, 24, 247, 239, 4, 233, 182, 19, 12, 67, 41, 204, 99, 245, 0, 229, 29, 5, 59, 251,
  74, 57, 0, 195, 43, 78, 237, 49, 255, 235, 17, 53, 49, 41, 56, 205, 29, 244, 36, 21,
  31, 243, 129, 190, 76, 227, 119, 253, 29, 236, 29, 253, 252, 223, 245, 232, 251, 98, 195, 255,
  213, 70, 5, 11, 35, 9, 8, 239, 20, 252, 79, 213, 205, 223, 240, 231, 63, 165, 24, 211,
  29, 71, 17, 185, 0, 0, 0, 0, 0, 0, 0, 0, 0, 0, 0, 0, 0, 0, 0, 0,
  0, 0, 0, 0, 0, 0, 0, 0, 0, 0, 0, 0, 0, 0, 0, 0, 0, 0, 0, 0,
  0, 0, 0, 0, 0, 0, 0, 0, 0, 0, 0, 0, 0, 0, 0, 0, 0, 0, 0, 0,
  0, 0, 0, 0, 0, 0, 0, 0, 12, 212, 118, 75, 223, 6, 193, 216, 223, 222, 48, 134,
  235, 44, 97, 211, 174, 173, 36, 236, 251, 246, 222, 112, 16, 226, 52, 41, 40, 27, 44, 26,
  209, 183, 242, 49, 234, 45, 1, 191, 233, 253, 205, 150, 34, 211, 249, 169, 220, 56, 229, 41,
  235, 226, 6, 34, 7, 193, 187, 208, 138, 114, 31, 16, 5, 129, 26, 249, 75, 219, 250, 72,
  204, 220, 251, 119, 112, 187, 12, 226, 26, 138, 236, 213, 10, 76, 157, 42, 7, 226, 44, 178,
  247, 235, 83, 19, 255, 144, 3, 29, 255, 8, 221, 44, 253, 213, 16, 249, 120, 242, 207, 247,
  218, 41, 78, 219, 181, 55, 55, 51, 244, 173, 149, 230, 212, 35, 58, 244, 0, 0, 0, 0,
  0, 0, 0, 0, 0, 0, 0, 0, 0, 0, 0, 0, 0, 0, 0, 0, 0, 0, 0, 0,
  0, 0, 0, 0, 0, 0, 0, 0, 0, 0, 0, 0, 0, 0, 0, 0, 0, 0, 0, 0,
  0, 0, 0, 0, 0, 0, 0, 0, 0, 0, 0, 0, 0, 0, 0, 0, 0, 0, 0, 0,
  10, 28, 252, 25, 0, 215, 241, 57, 18, 240, 205, 24, 52, 224, 19, 185, 2, 248, 227, 7,
  236, 199, 224, 36, 215, 89, 30, 12, 211, 175, 226, 44, 233, 244, 1, 50, 224, 2, 47, 193,
  1, 26, 30, 1, 33, 201, 14, 18, 240, 199, 233, 18, 222, 211, 212, 226, 227, 243, 254, 0,
  54, 243, 39, 228, 203, 33, 26, 247, 235, 223, 27, 219, 248, 16, 154, 20, 127, 206, 205, 84,
  17, 96, 165, 177, 248, 221, 246, 243, 218, 73, 196, 243, 34, 249, 15, 243, 252, 36, 26, 217,
  24, 216, 17, 254, 193, 237, 208, 5, 205, 248, 64, 157, 205, 177, 184, 27, 35, 33, 184, 76,
  254, 94, 20, 38, 206, 193, 34, 228, 0, 0, 0, 0, 0, 0, 0, 0, 0, 0, 0, 0,
  0, 0, 0, 0, 0, 0, 0, 0, 0, 0, 0, 0, 0, 0, 0, 0, 0, 0, 0, 0,
  0, 0, 0, 0, 0, 0, 0, 0, 0, 0, 0, 0, 0, 0, 0, 0, 0, 0, 0, 0,
  0, 0, 0, 0, 0, 0, 0, 0, 0, 0, 0, 0, 101, 230, 142, 193, 17, 212, 1, 63,
  54, 31, 17, 34, 51, 210, 252, 3, 205, 21, 209, 215, 14, 81, 245, 50, 227, 13, 250, 229,
  195, 195, 6, 27, 84, 1, 213, 23, 9, 77, 250, 236, 66, 9, 213, 80, 223, 0, 13, 219,
  14, 243, 209, 247, 127, 253, 205, 233, 252, 160, 240, 6, 39, 212, 27, 253, 239, 192, 249, 236,
  243, 239, 212, 19, 7, 189, 9, 111, 76, 252, 249, 14, 249, 237, 203, 20, 235, 63, 149, 70,
  183, 61, 222, 23, 44, 212, 29, 24, 212, 26, 46, 7, 63, 20, 20, 235, 37, 185, 239, 220,
  192, 24, 199, 217, 10, 50, 9, 239, 59, 3, 129, 13, 247, 30, 163, 27, 54, 225, 7, 200,
  0, 0, 0, 0, 0, 0, 0, 0, 0, 0, 0, 0, 0, 0, 0, 0, 0, 0, 0, 0,
  0, 0, 0, 0, 0, 0, 0, 0, 0, 0, 0, 0, 0, 0, 0, 0, 0, 0, 0, 0,
  0, 0, 0, 0, 0, 0, 0, 0, 0, 0, 0, 0, 0, 0, 0, 0, 0, 0, 0, 0,
  0, 0, 0, 0, 246, 215, 27, 12, 17, 248, 250, 6, 8, 4, 255, 242, 250, 248, 254, 12,
  16, 15, 7, 5, 4, 18, 246, 239, 17, 252, 0, 253, 7, 231, 5, 248, 255, 14, 249, 0,
  250, 12, 244, 0, 252, 9, 251, 2, 27, 8, 253, 0, 0, 244, 0, 2, 247, 12, 2, 253,
  248, 7, 248, 8, 249, 249, 2, 255, 223, 231, 252, 217, 23, 229, 243, 17, 0, 205, 0, 127,
  74, 25, 228, 1, 220, 247, 227, 236, 11, 21, 239, 243, 218, 5, 243, 251, 64, 219, 31, 18,
  13, 252, 13, 25, 35, 16, 236, 230, 3, 229, 233, 249, 7, 17, 222, 0, 244, 41, 37, 235,
  241, 38, 34, 6, 253, 6, 219, 20, 247, 29, 47, 10, 0, 0, 0, 0, 0, 0, 0, 0,
  0, 0, 0, 0, 0, 0, 0, 0, 0, 0, 0, 0, 0, 0, 0, 0, 0, 0, 0, 0,
  0, 0, 0, 0, 0, 0, 0, 0, 0, 0, 0, 0, 0, 0, 0, 0, 0, 0, 0, 0,
  0, 0, 0, 0, 0, 0, 0, 0, 0, 0, 0, 0, 0, 0, 0, 0, 73, 38, 192, 4,
  248, 36, 8, 27, 18, 11, 38, 38, 24, 3, 232, 3, 11, 238, 223, 45, 29, 234, 56, 250,
  176, 40, 53, 249, 28, 235, 236, 74, 161, 47, 241, 236, 167, 241, 246, 239, 43, 98, 3, 61,
  239, 246, 38, 11, 255, 8, 7, 246, 203, 241, 236, 210, 0, 243, 164, 114, 238, 236, 200, 229,
  107, 216, 238, 21, 35, 98, 68, 71, 38, 112, 127, 10, 38, 24, 46, 185, 18, 253, 206, 32,
  238, 4, 214, 68, 195, 82, 121, 52, 94, 67, 227, 202, 231, 3, 0, 175, 129, 227, 179, 3,
  232, 7, 242, 89, 27, 0, 214, 18, 4, 60, 8, 6, 129, 33, 246, 234, 36, 199, 236, 220,
  39, 248, 157, 13, 0, 0, 0, 0, 0, 0, 0, 0, 0, 0, 0, 0, 0, 0, 0, 0,
  0, 0, 0, 0, 0, 0, 0, 0, 0, 0, 0, 0, 0, 0, 0, 0, 0, 0, 0, 0,
  0, 0, 0, 0, 0, 0, 0, 0, 0, 0, 0, 0, 0, 0, 0, 0, 0, 0, 0, 0,
  0, 0, 0, 0, 0, 0, 0, 0, 33, 235, 230, 209, 40, 252, 197, 95, 14, 20, 241, 240,
  202, 241, 195, 187, 201, 28, 222, 47, 1, 204, 10, 96, 242, 39, 229, 230, 36, 37, 238, 45,
  47, 66, 46, 243, 17, 110, 223, 246, 204, 29, 38, 11, 231, 185, 34, 20, 205, 206, 86, 76,
  246, 41, 224, 13, 44, 232, 226, 141, 105, 247, 221, 172, 28, 224, 37, 52, 226, 62, 4, 84,
  220, 229, 55, 192, 201, 64, 209, 5, 21, 182, 28, 16, 210, 221, 225, 72, 111, 225, 69, 9,
  103, 240, 229, 47, 35, 13, 255, 3, 6, 46, 129, 205, 244, 250, 231, 231, 41, 176, 36, 255,
  190, 230, 113, 75, 18, 28, 251, 24, 20, 208, 171, 14, 26, 47, 59, 57, 0, 0, 0, 0,
  0, 0, 0, 0, 0, 0, 0, 0, 0, 0, 0, 0, 0, 0, 0, 0, 0, 0, 0, 0,
  0, 0, 0, 0, 0, 0, 0, 0, 0, 0, 0, 0, 0, 0, 0, 0, 0, 0, 0, 0,
  0, 0, 0, 0, 0, 0, 0, 0, 0, 0, 0, 0, 0, 0, 0, 0, 0, 0, 0, 0,
  235, 4, 243, 241, 5, 230, 225, 223, 237, 48, 18, 11, 230, 38, 252, 197, 35, 174, 245, 12,
  33, 13, 9, 245, 186, 249, 244, 2, 255, 249, 179, 20, 86, 129, 40, 26, 30, 19, 43, 228,
  9, 19, 196, 238, 215, 10, 33, 5, 70, 228, 225, 39, 73, 240, 215, 239, 33, 218, 44, 15,
  219, 45, 229, 247, 11, 55, 221, 229, 92, 3, 6, 239, 250, 142, 56, 42, 94, 1, 5, 42,
  251, 28, 226, 206, 84, 218, 229, 248, 172, 201, 237, 6, 20, 12, 16, 24, 2, 17, 26, 11,
  18, 126, 166, 253, 217, 231, 255, 192, 57, 75, 221, 219, 226, 52, 250, 243, 245, 225, 13, 46,
  0, 5, 12, 200, 245, 14, 14, 252, 0, 0, 0, 0, 0, 0, 0, 0, 0, 0, 0, 0,
  0, 0, 0, 0, 0, 0, 0, 0, 0, 0, 0, 0, 0, 0, 0, 0, 0, 0, 0, 0,
  0, 0, 0, 0, 0, 0, 0, 0, 0, 0, 0, 0, 0, 0, 0, 0, 0, 0, 0, 0,
  0, 0, 0, 0, 0, 0, 0, 0, 0, 0, 0, 0, 1, 1, 255, 239, 16, 255, 242, 243,
  10, 255, 236, 238, 4, 3, 10, 253, 250, 10, 247, 253, 254, 6, 252, 254, 5, 253, 233, 0,
  12, 4, 14, 12, 6, 250, 6, 17, 7, 249, 253, 245, 255, 253, 4, 249, 247, 248, 253, 250,
  246, 233, 253, 244, 16, 243, 248, 13, 3, 23, 255, 7, 1, 10, 23, 0, 231, 4, 248, 226,
  4, 248, 225, 255, 250, 212, 252, 127, 65, 5, 233, 26, 239, 242, 251, 248, 12, 49, 218, 4,
  230, 3, 231, 247, 78, 235, 53, 46, 12, 235, 16, 39, 53, 2, 239, 221, 19, 194, 252, 240,
  242, 2, 12, 34, 255, 7, 37, 215, 17, 2, 246, 38, 241, 245, 232, 21, 229, 16, 44, 13,
  0, 0, 0, 0, 0, 0, 0, 0, 0, 0, 0, 0, 0, 0, 0, 0, 0, 0, 0, 0,
  0, 0, 0, 0, 0, 0, 0, 0, 0, 0, 0, 0, 0, 0, 0, 0, 0, 0, 0, 0,
  0, 0, 0, 0, 0, 0, 0, 0, 0, 0, 0, 0, 0, 0, 0, 0, 0, 0, 0, 0,
  0, 0, 0, 0, 243, 237, 252, 48, 11, 26, 49, 238, 210, 26, 4, 252, 234, 237, 244, 6,
  62, 7, 3, 28, 189, 9, 251, 106, 216, 238, 12, 8, 4, 57, 221, 0, 238, 13, 9, 242,
  208, 65, 250, 243, 198, 6, 222, 246, 249, 212, 54, 25, 246, 48, 228, 240, 252, 0, 80, 249,
  239, 253, 249, 35, 240, 244, 219, 214, 18, 239, 63, 106, 205, 45, 73, 65, 239, 22, 23, 3,
  41, 25, 247, 245, 27, 227, 248, 21, 218, 230, 233, 102, 239, 1, 46, 32, 55, 34, 201, 29,
  226, 239, 228, 221, 176, 14, 187, 237, 191, 225, 228, 29, 67, 236, 254, 27, 225, 239, 250, 193,
  129, 3, 22, 212, 23, 229, 12, 21, 19, 49, 212, 234, 0, 0, 0, 0, 0, 0, 0, 0,
  0, 0, 0, 0, 0, 0, 0, 0, 0, 0, 0, 0, 0, 0, 0, 0, 0, 0, 0, 0,
  0, 0, 0, 0, 0, 0, 0, 0, 0, 0, 0, 0, 0, 0, 0, 0, 0, 0, 0, 0,
  0, 0, 0, 0, 0, 0, 0, 0, 0, 0, 0, 0, 0, 0, 0, 0, 219, 247, 97, 25,
  65, 2, 254, 228, 8, 19, 48, 237, 20, 227, 48, 227, 38, 35, 245, 9, 3, 186, 35, 239,
  72, 239, 246, 48, 219, 12, 198, 31, 86, 229, 222, 251, 36, 210, 194, 234, 238, 27, 197, 246,
  30, 34, 231, 227, 190, 230, 247, 38, 212, 105, 31, 51, 0, 220, 208, 235, 209, 22, 8, 239,
  6, 47, 215, 196, 89, 211, 212, 241, 16, 238, 232, 196, 7, 17, 9, 44, 58, 20, 249, 255,
  11, 49, 3, 220, 213, 250, 244, 254, 188, 230, 233, 248, 30, 31, 42, 33, 44, 25, 245, 34,
  2, 75, 221, 9, 240, 243, 213, 220, 49, 1, 203, 56, 39, 193, 43, 42, 243, 81, 36, 129,
  223, 221, 205, 23, 0, 0, 0, 0, 0, 0, 0, 0, 0, 0, 0, 0, 0, 0, 0, 0,
  0, 0, 0, 0, 0, 0, 0, 0, 0, 0, 0, 0, 0, 0, 0, 0, 0, 0, 0, 0,
  0, 0, 0, 0, 0, 0, 0, 0, 0, 0, 0, 0, 0, 0, 0, 0, 0, 0, 0, 0,
  0, 0, 0, 0, 0, 0, 0, 0, 39, 29, 80, 17, 242, 29, 238, 43, 49, 13, 83, 249,
  67, 250, 13, 213, 36, 193, 201, 45, 228, 252, 71, 31, 204, 30, 243, 53, 7, 40, 192, 214,
  33, 227, 243, 251, 212, 8, 229, 5, 22, 27, 244, 1, 192, 29, 213, 34, 19, 236, 3, 240,
  8, 23, 30, 252, 238, 233, 228, 229, 43, 231, 16, 21, 208, 255, 150, 207, 17, 215, 254, 192,
  8, 14, 59, 18, 127, 12, 244, 235, 39, 69, 22, 243, 31, 60, 255, 233, 42, 180, 247, 248,
  198, 30, 8, 219, 238, 234, 32, 24, 55, 12, 202, 252, 254, 56, 29, 243, 232, 204, 244, 229,
  9, 38, 28, 33, 22, 207, 26, 225, 246, 76, 205, 47, 255, 243, 32, 23, 0, 0, 0, 0,
  0, 0, 0, 0, 0, 0, 0, 0, 0, 0, 0, 0, 0, 0, 0, 0, 0, 0, 0, 0,
  0, 0, 0, 0, 0, 0, 0, 0, 0, 0, 0, 0, 0, 0, 0, 0, 0, 0, 0, 0,
  0, 0, 0, 0, 0, 0, 0, 0, 0, 0, 0, 0, 0, 0, 0, 0, 0, 0, 0, 0,
  148, 218, 6, 126, 251, 242, 35, 7, 247, 235, 169, 40, 209, 19, 14, 83, 216, 244, 252, 12,
  9, 198, 16, 8, 11, 249, 94, 247, 6, 147, 47, 22, 109, 58, 21, 210, 7, 249, 212, 7,
  232, 60, 12, 207, 144, 19, 248, 247, 127, 59, 229, 48, 8, 231, 0, 74, 236, 201, 214, 201,
  46, 165, 26, 67, 198, 52, 183, 230, 24, 9, 205, 18, 212, 156, 34, 44, 52, 240, 6, 33,
  46, 47, 25, 229, 16, 252, 20, 32, 59, 216, 255, 240, 208, 209, 52, 234, 249, 92, 187, 35,
  35, 6, 222, 15, 205, 13, 27, 214, 55, 237, 224, 15, 230, 22, 33, 2, 13, 255, 234, 52,
  235, 28, 254, 45, 174, 28, 131, 190, 0, 0, 0, 0, 0, 0, 0, 0, 0, 0, 0, 0,
  0, 0, 0, 0, 0, 0, 0, 0, 0, 0, 0, 0, 0, 0, 0, 0, 0, 0, 0, 0,
  0, 0, 0, 0, 0, 0, 0, 0, 0, 0, 0, 0, 0, 0, 0, 0, 0, 0, 0, 0,
  0, 0, 0, 0, 0, 0, 0, 0, 0, 0, 0, 0, 234, 19, 255, 217, 17, 228, 230, 250,
  17, 14, 249, 234, 1, 30, 230, 255, 7, 252, 1, 212, 19, 197, 10, 3, 7, 255, 237, 26,
  69, 12, 184, 248, 15, 36, 245, 219, 17, 235, 255, 242, 10, 250, 198, 242, 29, 210, 205, 234,
  15, 233, 12, 241, 231, 250, 242, 4, 221, 23, 28, 252, 8, 238, 228, 220, 224, 17, 32, 187,
  18, 204, 14, 220, 65, 30, 194, 150, 129, 213, 3, 4, 188, 234, 226, 210, 33, 162, 94, 150,
  32, 192, 187, 47, 237, 6, 190, 230, 250, 58, 4, 198, 22, 58, 48, 28, 3, 23, 213, 231,
  186, 250, 195, 224, 94, 23, 170, 69, 68, 47, 26, 219, 253, 62, 1, 57, 249, 187, 226, 22,
  0, 0, 0, 0, 0, 0, 0, 0, 0, 0, 0, 0, 0, 0, 0, 0, 0, 0, 0, 0,
  0, 0, 0, 0, 0, 0, 0, 0, 0, 0, 0, 0, 0, 0, 0, 0, 0, 0, 0, 0,
  0, 0, 0, 0, 0, 0, 0, 0, 0, 0, 0, 0, 0, 0, 0, 0, 0, 0, 0, 0,
  0, 0, 0, 0, 2, 9, 44, 253, 221, 4, 248, 237, 33, 36, 235, 228, 0, 241, 2, 1,
  12, 253, 19, 250, 22, 235, 211, 242, 230, 251, 253, 25, 21, 28, 253, 231, 46, 8, 18, 4,
  238, 79, 237, 249, 240, 13, 236, 17, 7, 229, 222, 19, 241, 220, 37, 252, 215, 1, 240, 227,
  23, 26, 206, 227, 252, 25, 251, 232, 243, 248, 18, 217, 247, 220, 35, 231, 72, 68, 202, 238,
  129, 248, 14, 23, 235, 222, 243, 234, 11, 5, 12, 189, 192, 202, 243, 12, 234, 23, 223, 236,
  31, 28, 0, 231, 159, 44, 227, 16, 235, 29, 239, 247, 6, 243, 162, 244, 34, 227, 252, 43,
  241, 26, 244, 214, 249, 16, 202, 241, 216, 228, 240, 249, 0, 0, 0, 0, 0, 0, 0, 0,
  0, 0, 0, 0, 0, 0, 0, 0, 0, 0, 0, 0, 0, 0, 0, 0, 0, 0, 0, 0,
  0, 0, 0, 0, 0, 0, 0, 0, 0, 0, 0, 0, 0, 0, 0, 0, 0, 0, 0, 0,
  0, 0, 0, 0, 0, 0, 0, 0, 0, 0, 0, 0, 0, 0, 0, 0, 54, 220, 24, 59,
  194, 47, 36, 123, 255, 42, 5, 240, 174, 252, 239, 186, 60, 250, 207, 21, 141, 249, 244, 14,
  24, 245, 1, 36, 29, 27, 135, 242, 17, 250, 9, 158, 149, 59, 240, 40, 216, 17, 21, 44,
  211, 31, 246, 245, 5, 19, 196, 206, 222, 205, 95, 190, 10, 226, 37, 252, 15, 22, 224, 34,
  27, 237, 72, 222, 24, 171, 185, 35, 9, 26, 189, 202, 103, 21, 242, 252, 229, 57, 227, 237,
  120, 49, 96, 129, 209, 103, 135, 24, 156, 31, 155, 30, 235, 42, 37, 92, 103, 72, 251, 82,
  216, 7, 247, 236, 211, 37, 191, 195, 45, 143, 24, 60, 95, 224, 176, 70, 6, 65, 39, 34,
  247, 205, 206, 230, 0, 0, 0, 0, 0, 0, 0, 0, 0, 0, 0, 0, 0, 0, 0, 0,
  0, 0, 0, 0, 0, 0, 0, 0, 0, 0, 0, 0, 0, 0, 0, 0, 0, 0, 0, 0,
  0, 0, 0, 0, 0, 0, 0, 0, 0, 0, 0, 0, 0, 0, 0, 0, 0, 0, 0, 0,
  0, 0, 0, 0, 0, 0, 0, 0, 244, 59, 37, 7, 36, 20, 6, 0, 8, 64, 27, 173,
  127, 9, 215, 33, 15, 17, 31, 251, 70, 7, 89, 247, 40, 19, 231, 216, 18, 12, 4, 11,
  240, 18, 27, 53, 20, 229, 57, 208, 0, 171, 250, 221, 231, 251, 253, 251, 35, 106, 249, 233,
  178, 13, 242, 56, 252, 0, 59, 252, 207, 9, 2, 33, 219, 42, 245, 250, 9, 227, 251, 233,
  13, 54, 254, 239, 82, 253, 6, 247, 12, 254, 196, 252, 252, 230, 21, 51, 44, 54, 252, 245,
  183, 25, 210, 250, 231, 223, 230, 244, 217, 248, 4, 17, 21, 116, 226, 14, 255, 82, 212, 212,
  244, 69, 204, 55, 196, 11, 74, 66, 9, 63, 34, 221, 52, 0, 50, 217, 0, 0, 0, 0,
  0, 0, 0, 0, 0, 0, 0, 0, 0, 0, 0, 0, 0, 0, 0, 0, 0, 0, 0, 0,
  0, 0, 0, 0, 0, 0, 0, 0, 0, 0, 0, 0, 0, 0, 0, 0, 0, 0, 0, 0,
  0, 0, 0, 0, 0, 0, 0, 0, 0, 0, 0, 0, 0, 0, 0, 0, 0, 0, 0, 0,
  5, 52, 211, 9, 18, 21, 242, 8, 217, 24, 16, 212, 243, 8, 27, 4, 22, 251, 153, 19,
  182, 240, 229, 113, 1, 31, 230, 249, 77, 221, 157, 7, 23, 226, 229, 240, 205, 229, 14, 212,
  229, 250, 244, 19, 2, 37, 218, 221, 18, 222, 52, 11, 224, 54, 250, 45, 41, 51, 227, 187,
  237, 227, 8, 194, 228, 102, 250, 5, 9, 31, 0, 226, 199, 177, 5, 250, 212, 36, 33, 220,
  200, 51, 175, 8, 39, 228, 235, 24, 217, 92, 215, 17, 57, 215, 245, 232, 15, 71, 225, 254,
  247, 218, 6, 24, 62, 243, 184, 12, 79, 38, 143, 226, 41, 163, 74, 250, 41, 56, 22, 92,
  25, 127, 23, 211, 169, 228, 226, 200, 0, 0, 0, 0, 0, 0, 0, 0, 0, 0, 0, 0,
  0, 0, 0, 0, 0, 0, 0, 0, 0, 0, 0, 0, 0, 0, 0, 0, 0, 0, 0, 0,
  0, 0, 0, 0, 0, 0, 0, 0, 0, 0, 0, 0, 0, 0, 0, 0, 0, 0, 0, 0,
  0, 0, 0, 0, 0, 0, 0, 0, 0, 0, 0, 0, 252, 247, 20, 7, 19, 5, 16, 10,
  4, 2, 208, 251, 245, 21, 245, 244, 17, 232, 5, 238, 246, 29, 242, 252, 1, 251, 24, 223,
  216, 4, 232, 236, 7, 3, 254, 25, 34, 3, 8, 233, 251, 229, 237, 255, 246, 246, 250, 10,
  28, 239, 207, 213, 217, 23, 253, 33, 249, 252, 16, 201, 23, 12, 36, 12, 229, 4, 2, 238,
  214, 228, 19, 218, 22, 127, 236, 173, 223, 236, 30, 0, 243, 255, 221, 3, 53, 209, 59, 7,
  223, 238, 238, 246, 202, 23, 227, 208, 239, 37, 244, 236, 200, 48, 75, 31, 233, 4, 247, 232,
  6, 246, 227, 220, 69, 234, 156, 38, 65, 54, 18, 203, 231, 38, 21, 212, 250, 227, 251, 196,
  0, 0, 0, 0, 0, 0, 0, 0, 0, 0, 0, 0, 0, 0, 0, 0, 0, 0, 0, 0,
  0, 0, 0, 0, 0, 0, 0, 0, 0, 0, 0, 0, 0, 0, 0, 0, 0, 0, 0, 0,
  0, 0, 0, 0, 0, 0, 0, 0, 0, 0, 0, 0, 0, 0, 0, 0, 0, 0, 0, 0,
  0, 0, 0, 0, 72, 228, 16, 105, 231, 5, 228, 182, 242, 217, 49, 39, 178, 38, 55, 6,
  238, 238, 44, 252, 58, 171, 33, 218, 131, 21, 225, 245, 28, 58, 109, 254, 221, 236, 6, 67,
  252, 69, 32, 254, 23, 235, 95, 202, 12, 231, 254, 58, 219, 224, 252, 245, 10, 241, 208, 44,
  48, 10, 105, 7, 60, 217, 231, 41, 215, 220, 4, 230, 229, 15, 14, 201, 1, 41, 213, 90,
  181, 219, 254, 254, 167, 228, 28, 246, 249, 254, 214, 252, 226, 171, 198, 234, 6, 127, 178, 1,
  18, 224, 25, 22, 247, 239, 26, 38, 194, 180, 203, 236, 250, 221, 120, 244, 223, 136, 244, 251,
  65, 72, 192, 27, 10, 100, 192, 48, 228, 212, 226, 52, 0, 0, 0, 0, 0, 0, 0, 0,
  0, 0, 0, 0, 0, 0, 0, 0, 0, 0, 0, 0, 0, 0, 0, 0, 0, 0, 0, 0,
  0, 0, 0, 0, 0, 0, 0, 0, 0, 0, 0, 0, 0, 0, 0, 0, 0, 0, 0, 0,
  0, 0, 0, 0, 0, 0, 0, 0, 0, 0, 0, 0, 0, 0, 0, 0, 233, 250, 3, 16,
  238, 33, 221, 214, 228, 40, 33, 244, 36, 233, 210, 236, 222, 5, 240, 249, 19, 241, 73, 246,
  220, 11, 9, 26, 8, 242, 23, 11, 200, 15, 224, 9, 238, 36, 17, 222, 242, 241, 2, 253,
  15, 239, 233, 14, 244, 59, 24, 1, 247, 249, 15, 231, 19, 254, 33, 99, 11, 15, 204, 250,
  62, 24, 250, 249, 27, 52, 29, 35, 27, 2, 42, 48, 53, 16, 35, 23, 7, 223, 8, 254,
  249, 195, 246, 234, 236, 224, 236, 49, 9, 233, 254, 11, 238, 231, 230, 7, 250, 217, 244, 5,
  33, 251, 250, 23, 254, 50, 214, 17, 216, 8, 195, 238, 129, 224, 242, 244, 18, 239, 223, 27,
  24, 24, 213, 10, 0, 0, 0, 0, 0, 0, 0, 0, 0, 0, 0, 0, 0, 0, 0, 0,
  0, 0, 0, 0, 0, 0, 0, 0, 0, 0, 0, 0, 0, 0, 0, 0, 0, 0, 0, 0,
  0, 0, 0, 0, 0, 0, 0, 0, 0, 0, 0, 0, 0, 0, 0, 0, 0, 0, 0, 0,
  0, 0, 0, 0, 0, 0, 0, 0, 3, 250, 249, 8, 2, 251, 15, 1, 1, 16, 255, 249,
  249, 16, 1, 250, 8, 254, 249, 5, 239, 255, 2, 24, 251, 254, 5, 9, 250, 3, 246, 240,
  5, 6, 245, 8, 232, 3, 241, 246, 13, 251, 1, 0, 13, 245, 249, 250, 8, 3, 234, 246,
  233, 250, 5, 1, 6, 2, 247, 243, 255, 2, 253, 1, 0, 16, 17, 253, 250, 243, 24, 224,
  43, 82, 245, 178, 201, 254, 23, 7, 253, 15, 241, 246, 221, 218, 39, 231, 17, 13, 238, 32,
  203, 3, 221, 177, 246, 22, 239, 222, 182, 22, 73, 61, 248, 39, 238, 246, 247, 245, 246, 235,
  34, 234, 129, 96, 23, 38, 32, 205, 11, 32, 35, 213, 254, 233, 229, 240, 0, 0, 0, 0,
  0, 0, 0, 0, 0, 0, 0, 0, 0, 0, 0, 0, 0, 0, 0, 0, 0, 0, 0, 0,
  0, 0, 0, 0, 0, 0, 0, 0, 0, 0, 0, 0, 0, 0, 0, 0, 0, 0, 0, 0,
  0, 0, 0, 0, 0, 0, 0, 0, 0, 0, 0, 0, 0, 0, 0, 0, 0, 0, 0, 0,
  214, 241, 12, 91, 51, 17, 243, 22, 224, 0, 33, 224, 16, 24, 22, 28, 53, 57, 227, 246,
  14, 242, 255, 202, 26, 252, 232, 242, 9, 16, 7, 31, 207, 192, 219, 29, 1, 235, 193, 4,
  209, 207, 240, 232, 22, 16, 2, 1, 1, 211, 13, 16, 19, 246, 87, 218, 3, 5, 89, 93,
  44, 3, 216, 239, 233, 209, 46, 252, 10, 7, 227, 194, 42, 16, 223, 190, 216, 36, 8, 255,
  23, 178, 214, 228, 231, 7, 228, 255, 214, 192, 208, 30, 237, 190, 13, 9, 245, 229, 30, 255,
  175, 63, 231, 223, 24, 226, 202, 206, 6, 65, 241, 29, 120, 234, 45, 253, 28, 244, 243, 227,
  255, 9, 127, 39, 249, 22, 197, 240, 0, 0, 0, 0, 0, 0, 0, 0, 0, 0, 0, 0,
  0, 0, 0, 0, 0, 0, 0, 0, 0, 0, 0, 0, 0, 0, 0, 0, 0, 0, 0, 0,
  0, 0, 0, 0, 0, 0, 0, 0, 0, 0, 0, 0, 0, 0, 0, 0, 0, 0, 0, 0,
  0, 0, 0, 0, 0, 0, 0, 0, 0, 0, 0, 0, 226, 198, 52, 31, 254, 0, 202, 230,
  38, 17, 20, 24, 173, 15, 245, 250, 19, 216, 245, 255, 238, 201, 207, 33, 253, 74, 56, 15,
  252, 15, 13, 31, 237, 251, 227, 245, 238, 7, 39, 0, 6, 240, 219, 67, 26, 251, 18, 226,
  52, 236, 19, 255, 213, 36, 14, 24, 2, 227, 46, 208, 249, 22, 251, 25, 243, 49, 220, 246,
  255, 10, 241, 249, 255, 248, 5, 31, 191, 5, 30, 224, 13, 227, 222, 43, 186, 227, 167, 38,
  52, 127, 243, 2, 46, 9, 1, 63, 214, 4, 31, 53, 57, 40, 5, 249, 54, 246, 218, 242,
  230, 36, 224, 11, 17, 14, 1, 4, 229, 31, 203, 21, 28, 26, 70, 207, 235, 230, 7, 238,
  0, 0, 0, 0, 0, 0, 0, 0, 0, 0, 0, 0, 0, 0, 0, 0, 0, 0, 0, 0,
  0, 0, 0, 0, 0, 0, 0, 0, 0, 0, 0, 0, 0, 0, 0, 0, 0, 0, 0, 0,
  0, 0, 0, 0, 0, 0, 0, 0, 0, 0, 0, 0, 0, 0, 0, 0, 0, 0, 0, 0,
  0, 0, 0, 0, 51, 242, 232, 224, 230, 199, 218, 39, 23, 233, 208, 240, 22, 12, 6, 251,
  245, 59, 74, 238, 239, 236, 231, 28, 15, 6, 5, 2, 243, 10, 0, 250, 240, 233, 234, 16,
  241, 219, 236, 8, 16, 32, 4, 196, 26, 28, 241, 224, 49, 42, 254, 221, 33, 15, 26, 36,
  21, 28, 5, 68, 9, 15, 19, 249, 10, 215, 240, 129, 35, 207, 235, 243, 224, 13, 243, 3,
  236, 247, 240, 12, 188, 18, 10, 18, 18, 54, 10, 0, 233, 20, 33, 218, 165, 249, 0, 15,
  44, 3, 29, 15, 36, 228, 239, 244, 245, 3, 11, 229, 245, 238, 215, 224, 25, 220, 34, 227,
  38, 16, 50, 23, 12, 249, 255, 48, 233, 55, 28, 18, 0, 0, 0, 0, 0, 0, 0, 0,
  0, 0, 0, 0, 0, 0, 0, 0, 0, 0, 0, 0, 0, 0, 0, 0, 0, 0, 0, 0,
  0, 0, 0, 0, 0, 0, 0, 0, 0, 0, 0, 0, 0, 0, 0, 0, 0, 0, 0, 0,
  0, 0, 0, 0, 0, 0, 0, 0, 0, 0, 0, 0, 0, 0, 0, 0, 18, 6, 254, 32,
  22, 32, 9, 38, 40, 34, 14, 208, 16, 242, 35, 0, 4, 245, 244, 247, 180, 239, 216, 38,
  250, 240, 29, 37, 8, 16, 206, 184, 14, 19, 14, 245, 230, 30, 249, 242, 0, 4, 251, 34,
  247, 4, 237, 5, 250, 41, 186, 7, 234, 1, 224, 222, 16, 239, 224, 21, 249, 239, 210, 1,
  50, 196, 12, 90, 213, 25, 37, 59, 6, 22, 76, 217, 213, 224, 10, 190, 50, 220, 220, 12,
  223, 186, 163, 27, 5, 17, 83, 49, 4, 45, 186, 216, 244, 13, 215, 221, 158, 10, 203, 35,
  214, 34, 7, 29, 17, 33, 42, 21, 250, 46, 187, 1, 179, 36, 255, 198, 37, 188, 251, 235,
  24, 16, 129, 11, 0, 0, 0, 0, 0, 0, 0, 0, 0, 0, 0, 0, 0, 0, 0, 0,
  0, 0, 0, 0, 0, 0, 0, 0, 0, 0, 0, 0, 0, 0, 0, 0, 0, 0, 0, 0,
  0, 0, 0, 0, 0, 0, 0, 0, 0, 0, 0, 0, 0, 0, 0, 0, 0, 0, 0, 0,
  0, 0, 0, 0, 0, 0, 0, 0, 11, 220, 221, 210, 20, 178, 215, 35, 15, 40, 209, 199,
  174, 30, 251, 0, 22, 0, 86, 241, 236, 112, 16, 101, 201, 29, 240, 252, 82, 61, 22, 19,
  214, 26, 229, 249, 216, 27, 210, 252, 226, 5, 40, 68, 216, 240, 35, 245, 37, 36, 194, 216,
  190, 27, 27, 11, 40, 236, 251, 252, 209, 7, 194, 24, 229, 236, 11, 155, 235, 32, 254, 50,
  219, 250, 59, 61, 209, 242, 181, 246, 5, 247, 195, 14, 11, 56, 59, 244, 180, 212, 17, 235,
  127, 20, 59, 68, 246, 39, 37, 72, 199, 2, 166, 216, 34, 129, 24, 221, 229, 37, 59, 229,
  220, 31, 237, 205, 156, 143, 235, 241, 231, 156, 175, 216, 188, 54, 185, 21, 0, 0, 0, 0,
  0, 0, 0, 0, 0, 0, 0, 0, 0, 0, 0, 0, 0, 0, 0, 0, 0, 0, 0, 0,
  0, 0, 0, 0, 0, 0, 0, 0, 0, 0, 0, 0, 0, 0, 0, 0, 0, 0, 0, 0,
  0, 0, 0, 0, 0, 0, 0, 0, 0, 0, 0, 0, 0, 0, 0, 0, 0, 0, 0, 0,
  247, 239, 68, 65, 237, 44, 43, 37, 31, 19, 252, 22, 59, 59, 52, 248, 61, 21, 226, 247,
  246, 190, 198, 255, 35, 1, 50, 251, 213, 241, 221, 4, 29, 226, 246, 183, 215, 236, 241, 72,
  22, 9, 251, 253, 0, 52, 251, 29, 16, 236, 48, 245, 13, 249, 250, 227, 231, 237, 44, 20,
  7, 212, 70, 32, 219, 24, 204, 10, 68, 235, 45, 188, 22, 30, 225, 85, 89, 41, 40, 32,
  6, 235, 239, 53, 12, 130, 27, 225, 5, 42, 242, 2, 129, 210, 232, 228, 251, 243, 40, 202,
  64, 254, 26, 252, 1, 100, 22, 241, 50, 233, 233, 232, 241, 170, 24, 14, 104, 122, 224, 229,
  55, 59, 44, 9, 48, 29, 45, 187, 0, 0, 0, 0, 0, 0, 0, 0, 0, 0, 0, 0,
  0, 0, 0, 0, 0, 0, 0, 0, 0, 0, 0, 0, 0, 0, 0, 0, 0, 0, 0, 0,
  0, 0, 0, 0, 0, 0, 0, 0, 0, 0, 0, 0, 0, 0, 0, 0, 0, 0, 0, 0,
  0, 0, 0, 0, 0, 0, 0, 0, 0, 0, 0, 0, 1, 2, 0, 254, 2, 0, 8, 6,
  233, 26, 254, 253, 241, 5, 251, 255, 9, 255, 255, 255, 4, 9, 252, 12, 253, 255, 5, 16,
  248, 8, 0, 251, 253, 0, 242, 5, 2, 253, 242, 251, 246, 255, 7, 252, 3, 255, 241, 253,
  4, 245, 251, 250, 253, 10, 244, 252, 0, 3, 238, 252, 255, 1, 6, 1, 247, 28, 9, 239,
  238, 247, 27, 242, 50, 69, 241, 179, 215, 240, 249, 1, 238, 10, 244, 13, 238, 215, 12, 245,
  15, 232, 247, 23, 203, 20, 238, 214, 247, 18, 252, 214, 191, 13, 37, 29, 6, 18, 247, 1,
  253, 254, 240, 228, 22, 232, 129, 47, 30, 63, 39, 197, 251, 15, 56, 247, 240, 236, 249, 3,
  0, 0, 0, 0, 0, 0, 0, 0, 0, 0, 0, 0, 0, 0, 0, 0, 0, 0, 0, 0,
  0, 0, 0, 0, 0, 0, 0, 0, 0, 0, 0, 0, 0, 0, 0, 0, 0, 0, 0, 0,
  0, 0, 0, 0, 0, 0, 0, 0, 0, 0, 0, 0, 0, 0, 0, 0, 0, 0, 0, 0,
  0, 0, 0, 0, 23, 59, 31, 96, 217, 18, 247, 127, 2, 231, 202, 24, 230, 0, 7, 213,
  9, 61, 222, 252, 9, 254, 198, 145, 107, 223, 50, 42, 199, 21, 28, 23, 216, 9, 241, 254,
  229, 22, 32, 229, 204, 221, 227, 235, 228, 9, 227, 242, 91, 114, 4, 212, 204, 240, 185, 42,
  250, 229, 86, 224, 57, 239, 38, 33, 208, 14, 204, 25, 35, 53, 13, 16, 7, 24, 26, 79,
  17, 247, 213, 250, 204, 42, 240, 38, 21, 26, 9, 67, 52, 44, 14, 211, 35, 252, 5, 34,
  15, 20, 203, 221, 4, 5, 22, 252, 38, 141, 51, 241, 27, 36, 2, 18, 213, 41, 34, 205,
  214, 7, 34, 15, 239, 224, 167, 14, 4, 255, 254, 242, 0, 0, 0, 0, 0, 0, 0, 0,
  0, 0, 0, 0, 0, 0, 0, 0, 0, 0, 0, 0, 0, 0, 0, 0, 0, 0, 0, 0,
  0, 0, 0, 0, 0, 0, 0, 0, 0, 0, 0, 0, 0, 0, 0, 0, 0, 0, 0, 0,
  0, 0, 0, 0, 0, 0, 0, 0, 0, 0, 0, 0, 0, 0, 0, 0, 209, 235, 0, 129,
  192, 211, 254, 219, 203, 20, 225, 14, 186, 66, 33, 25, 254, 174, 33, 27, 61, 8, 244, 21,
  14, 221, 12, 193, 225, 240, 12, 53, 59, 211, 20, 51, 59, 207, 12, 236, 12, 25, 45, 192,
  211, 160, 215, 6, 201, 240, 92, 21, 70, 207, 227, 123, 250, 238, 2, 231, 174, 244, 43, 35,
  240, 242, 244, 238, 235, 250, 250, 215, 14, 41, 180, 254, 233, 20, 6, 254, 217, 31, 235, 219,
  49, 6, 27, 201, 16, 4, 14, 33, 219, 29, 248, 186, 213, 8, 246, 246, 182, 6, 55, 61,
  235, 74, 2, 66, 37, 29, 0, 207, 41, 235, 190, 27, 229, 37, 23, 190, 0, 63, 0, 193,
  250, 203, 250, 219, 0, 0, 0, 0, 0, 0, 0, 0, 0, 0, 0, 0, 0, 0, 0, 0,
  0, 0, 0, 0, 0, 0, 0, 0, 0, 0, 0, 0, 0, 0, 0, 0, 0, 0, 0, 0,
  0, 0, 0, 0, 0, 0, 0, 0, 0, 0, 0, 0, 0, 0, 0, 0, 0, 0, 0, 0,
  0, 0, 0, 0, 0, 0, 0, 0, 53, 10, 50, 226, 112, 223, 216, 18, 239, 50, 32, 241,
  189, 224, 12, 164, 243, 52, 246, 244, 62, 231, 55, 199, 196, 239, 208, 251, 213, 13, 184, 199,
  223, 208, 84, 38, 248, 89, 243, 246, 25, 176, 253, 12, 47, 238, 187, 50, 199, 246, 12, 221,
  12, 53, 167, 2, 10, 203, 241, 162, 35, 25, 246, 177, 211, 139, 246, 164, 125, 229, 167, 22,
  30, 17, 167, 94, 254, 30, 218, 228, 243, 248, 199, 243, 112, 129, 38, 241, 137, 176, 186, 70,
  120, 221, 38, 117, 229, 254, 12, 45, 58, 67, 208, 22, 254, 238, 199, 201, 20, 67, 208, 13,
  191, 199, 239, 181, 70, 97, 104, 223, 32, 52, 129, 204, 199, 35, 27, 8, 0, 0, 0, 0,
  0, 0, 0, 0, 0, 0, 0, 0, 0, 0, 0, 0, 0, 0, 0, 0, 0, 0, 0, 0,
  0, 0, 0, 0, 0, 0, 0, 0, 0, 0, 0, 0, 0, 0, 0, 0, 0, 0, 0, 0,
  0, 0, 0, 0, 0, 0, 0, 0, 0, 0, 0, 0, 0, 0, 0, 0, 0, 0, 0, 0,
  180, 59, 15, 46, 0, 229, 154, 219, 246, 231, 231, 210, 64, 7, 176, 51, 24, 27, 36, 253,
  229, 8, 209, 52, 73, 237, 107, 5, 20, 17, 222, 12, 0, 251, 0, 22, 76, 227, 88, 136,
  175, 253, 27, 85, 229, 242, 15, 2, 214, 25, 149, 200, 251, 166, 181, 246, 237, 10, 175, 17,
  251, 68, 47, 10, 73, 212, 64, 34, 10, 102, 49, 64, 248, 180, 46, 12, 3, 176, 10, 24,
  10, 227, 249, 239, 66, 2, 143, 69, 248, 242, 110, 185, 22, 220, 37, 49, 86, 78, 212, 214,
  0, 244, 249, 226, 37, 173, 231, 25, 58, 27, 115, 54, 234, 19, 34, 237, 7, 39, 193, 10,
  244, 188, 197, 127, 12, 244, 64, 8, 0, 0, 0, 0, 0, 0, 0, 0, 0, 0, 0, 0,
  0, 0, 0, 0, 0, 0, 0, 0, 0, 0, 0, 0, 0, 0, 0, 0, 0, 0, 0, 0,
  0, 0, 0, 0, 0, 0, 0, 0, 0, 0, 0, 0, 0, 0, 0, 0, 0, 0, 0, 0,
  0, 0, 0, 0, 0, 0, 0, 0, 0, 0, 0, 0, 209, 254, 39, 238, 6, 224, 98, 17,
  209, 170, 251, 223, 3, 200, 235, 62, 9, 53, 220, 220, 129, 253, 235, 253, 37, 26, 213, 237,
  21, 92, 226, 10, 229, 23, 38, 131, 228, 232, 201, 51, 3, 44, 214, 224, 211, 4, 241, 8,
  48, 30, 50, 255, 48, 224, 210, 20, 188, 21, 202, 2, 246, 243, 2, 1, 9, 31, 20, 28,
  19, 64, 24, 47, 1, 40, 55, 209, 25, 240, 0, 227, 55, 234, 34, 43, 188, 255, 244, 63,
  36, 232, 70, 241, 5, 232, 19, 233, 12, 232, 231, 208, 15, 243, 42, 244, 13, 11, 27, 16,
  54, 226, 26, 65, 14, 11, 67, 23, 216, 254, 5, 234, 34, 239, 2, 13, 39, 236, 10, 1,
  0, 0, 0, 0, 0, 0, 0, 0, 0, 0, 0, 0, 0, 0, 0, 0, 0, 0, 0, 0,
  0, 0, 0, 0, 0, 0, 0, 0, 0, 0, 0, 0, 0, 0, 0, 0, 0, 0, 0, 0,
  0, 0, 0, 0, 0, 0, 0, 0, 0, 0, 0, 0, 0, 0, 0, 0, 0, 0, 0, 0,
  0, 0, 0, 0, 216, 15, 213, 220, 244, 228, 246, 3, 230, 74, 219, 65, 47, 8, 240, 7,
  234, 204, 4, 214, 12, 222, 195, 165, 48, 190, 24, 199, 227, 171, 252, 25, 173, 3, 249, 65,
  31, 34, 251, 51, 13, 255, 252, 17, 234, 163, 42, 245, 27, 202, 76, 37, 50, 16, 129, 11,
  7, 249, 198, 32, 254, 34, 70, 2, 234, 8, 61, 41, 252, 225, 202, 211, 76, 77, 145, 187,
  221, 11, 250, 48, 193, 49, 32, 14, 87, 6, 3, 232, 2, 245, 207, 245, 197, 19, 15, 27,
  231, 218, 21, 204, 9, 237, 5, 95, 17, 29, 11, 235, 231, 216, 224, 208, 22, 153, 58, 66,
  96, 13, 207, 223, 235, 234, 68, 180, 226, 4, 238, 173, 0, 0, 0, 0, 0, 0, 0, 0,
  0, 0, 0, 0, 0, 0, 0, 0, 0, 0, 0, 0, 0, 0, 0, 0, 0, 0, 0, 0,
  0, 0, 0, 0, 0, 0, 0, 0, 0, 0, 0, 0, 0, 0, 0, 0, 0, 0, 0, 0,
  0, 0, 0, 0, 0, 0, 0, 0, 0, 0, 0, 0, 0, 0, 0, 0, 218, 240, 53, 233,
  219, 234, 33, 225, 246, 238, 33, 31, 10, 8, 243, 19, 19, 10, 13, 18, 65, 41, 82, 255,
  215, 241, 191, 230, 32, 195, 3, 235, 207, 32, 10, 255, 253, 225, 47, 2, 252, 9, 51, 233,
  41, 236, 38, 67, 2, 43, 8, 250, 245, 37, 212, 242, 1, 5, 248, 171, 30, 3, 222, 220,
  186, 225, 94, 233, 189, 29, 240, 183, 248, 62, 246, 31, 30, 243, 6, 26, 70, 99, 241, 211,
  219, 49, 127, 206, 31, 173, 187, 236, 100, 179, 248, 194, 221, 56, 43, 220, 187, 247, 76, 55,
  189, 26, 17, 8, 104, 198, 21, 61, 21, 48, 14, 23, 255, 34, 185, 135, 214, 1, 253, 170,
  53, 232, 222, 221, 0, 0, 0, 0, 0, 0, 0, 0, 0, 0, 0, 0, 0, 0, 0, 0,
  0, 0, 0, 0, 0, 0, 0, 0, 0, 0, 0, 0, 0, 0, 0, 0, 0, 0, 0, 0,
  0, 0, 0, 0, 0, 0, 0, 0, 0, 0, 0, 0, 0, 0, 0, 0, 0, 0, 0, 0,
  0, 0, 0, 0, 0, 0, 0, 0, 33, 193, 65, 84, 212, 70, 245, 235, 83, 222, 240, 231,
  181, 255, 40, 209, 26, 48, 242, 9, 212, 234, 186, 234, 46, 31, 2, 74, 32, 232, 216, 193,
  62, 235, 147, 199, 183, 90, 218, 7, 251, 249, 227, 53, 38, 127, 79, 226, 233, 38, 182, 3,
  159, 254, 17, 212, 242, 255, 226, 240, 59, 233, 239, 29, 209, 198, 232, 249, 3, 239, 172, 203,
  253, 19, 233, 209, 0, 223, 228, 74, 21, 221, 28, 1, 201, 231, 75, 180, 16, 249, 235, 232,
  236, 27, 33, 246, 178, 18, 98, 20, 14, 2, 255, 207, 240, 160, 251, 248, 216, 226, 35, 249,
  22, 19, 52, 89, 15, 8, 243, 17, 8, 66, 0, 218, 251, 234, 49, 254, 0, 0, 0, 0,
  0, 0, 0, 0, 0, 0, 0, 0, 0, 0, 0, 0, 0, 0, 0, 0, 0, 0, 0, 0,
  0, 0, 0, 0, 0, 0, 0, 0, 0, 0, 0, 0, 0, 0, 0, 0, 0, 0, 0, 0,
  0, 0, 0, 0, 0, 0, 0, 0, 0, 0, 0, 0, 0, 0, 0, 0, 0, 0, 0, 0,
  129, 106, 108, 17, 42, 140, 231, 125, 245, 4, 13, 239, 218, 93, 72, 140, 176, 64, 182, 97,
  51, 231, 36, 154, 245, 91, 49, 199, 252, 207, 254, 11, 212, 209, 146, 21, 59, 57, 239, 11,
  25, 42, 216, 243, 4, 150, 19, 17, 176, 32, 2, 51, 207, 125, 218, 32, 218, 61, 176, 76,
  241, 19, 218, 30, 2, 248, 188, 55, 169, 17, 28, 137, 218, 222, 241, 235, 61, 112, 40, 212,
  19, 72, 224, 216, 112, 220, 226, 6, 15, 192, 222, 226, 228, 226, 209, 245, 28, 231, 44, 248,
  224, 252, 209, 252, 239, 214, 30, 34, 15, 0, 173, 214, 102, 13, 30, 254, 201, 220, 38, 235,
  17, 235, 192, 248, 214, 21, 233, 6, 0, 0, 0, 0, 0, 0, 0, 0, 0, 0, 0, 0,
  0, 0, 0, 0, 0, 0, 0, 0, 0, 0, 0, 0, 0, 0, 0, 0, 0, 0, 0, 0,
  0, 0, 0, 0, 0, 0, 0, 0, 0, 0, 0, 0, 0, 0, 0, 0, 0, 0, 0, 0,
  0, 0, 0, 0, 0, 0, 0, 0, 0, 0, 0, 0, 2, 46, 210, 19, 233, 6, 41, 12,
  240, 250, 222, 71, 57, 215, 11, 233, 30, 9, 15, 239, 5, 247, 249, 53, 13, 13, 5, 7,
  200, 14, 37, 240, 199, 198, 217, 239, 239, 251, 3, 12, 241, 224, 235, 221, 0, 3, 27, 240,
  27, 136, 223, 236, 210, 9, 19, 247, 227, 239, 10, 255, 22, 208, 50, 52, 14, 28, 244, 223,
  211, 208, 222, 206, 23, 208, 215, 79, 57, 251, 242, 231, 219, 93, 20, 232, 42, 15, 41, 27,
  36, 191, 30, 211, 241, 233, 47, 46, 226, 0, 5, 60, 245, 198, 20, 209, 244, 21, 218, 197,
  234, 2, 51, 234, 2, 129, 0, 8, 25, 81, 0, 232, 204, 208, 72, 184, 205, 0, 58, 53,
  0, 0, 0, 0, 0, 0, 0, 0, 0, 0, 0, 0, 0, 0, 0, 0, 0, 0, 0, 0,
  0, 0, 0, 0, 0, 0, 0, 0, 0, 0, 0, 0, 0, 0, 0, 0, 0, 0, 0, 0,
  0, 0, 0, 0, 0, 0, 0, 0, 0, 0, 0, 0, 0, 0, 0, 0, 0, 0, 0, 0,
  0, 0, 0, 0, 207, 46, 239, 250, 212, 5, 21, 186, 247, 11, 252, 29, 43, 26, 18, 38,
  236, 249, 13, 21, 243, 230, 194, 173, 255, 238, 36, 225, 234, 182, 38, 17, 56, 84, 254, 50,
  48, 0, 7, 17, 21, 52, 15, 17, 1, 18, 170, 216, 207, 224, 9, 14, 21, 129, 11, 11,
  215, 14, 242, 218, 16, 224, 254, 1, 242, 212, 235, 1, 215, 23, 22, 5, 9, 29, 7, 20,
  44, 247, 222, 243, 33, 225, 246, 16, 252, 10, 187, 238, 218, 54, 239, 17, 56, 228, 244, 15,
  29, 253, 55, 20, 16, 60, 249, 12, 234, 12, 245, 230, 249, 38, 213, 1, 56, 2, 29, 175,
  203, 222, 237, 252, 245, 5, 25, 217, 10, 41, 196, 248, 0, 0, 0, 0, 0, 0, 0, 0,
  0, 0, 0, 0, 0, 0, 0, 0, 0, 0, 0, 0, 0, 0, 0, 0, 0, 0, 0, 0,
  0, 0, 0, 0, 0, 0, 0, 0, 0, 0, 0, 0, 0, 0, 0, 0, 0, 0, 0, 0,
  0, 0, 0, 0, 0, 0, 0, 0, 0, 0, 0, 0, 0, 0, 0, 0, 236, 7, 9, 25,
  218, 209, 41, 3, 38, 228, 244, 60, 13, 244, 24, 2, 44, 229, 25, 26, 208, 164, 245, 235,
  44, 25, 194, 255, 222, 42, 1, 242, 30, 230, 245, 244, 227, 195, 250, 9, 193, 252, 253, 252,
  20, 26, 3, 31, 84, 2, 82, 212, 6, 228, 247, 224, 229, 33, 37, 12, 218, 242, 182, 240,
  201, 18, 34, 178, 49, 241, 33, 175, 218, 220, 220, 226, 255, 238, 254, 235, 231, 16, 245, 205,
  12, 127, 243, 192, 253, 217, 226, 203, 2, 29, 52, 13, 214, 233, 254, 224, 22, 166, 230, 22,
  252, 241, 54, 26, 37, 206, 18, 75, 69, 251, 43, 228, 39, 20, 37, 73, 232, 211, 95, 238,
  254, 232, 27, 235, 0, 0, 0, 0, 0, 0, 0, 0, 0, 0, 0, 0, 0, 0, 0, 0,
  0, 0, 0, 0, 0, 0, 0, 0, 0, 0, 0, 0, 0, 0, 0, 0, 0, 0, 0, 0,
  0, 0, 0, 0, 0, 0, 0, 0, 0, 0, 0, 0, 0, 0, 0, 0, 0, 0, 0, 0,
  0, 0, 0, 0, 0, 0, 0, 0, 210, 37, 248, 228, 237, 24, 55, 222, 14, 230, 3, 255,
  70, 20, 247, 249, 237, 187, 186, 33, 6, 201, 247, 242, 15, 18, 229, 14, 34, 236, 246, 243,
  31, 222, 12, 209, 201, 1, 244, 27, 249, 85, 12, 8, 238, 27, 248, 44, 2, 47, 219, 22,
  241, 54, 10, 224, 238, 34, 12, 235, 39, 253, 211, 212, 22, 230, 14, 66, 187, 27, 38, 39,
  255, 58, 8, 133, 23, 235, 252, 224, 31, 4, 242, 15, 245, 19, 245, 212, 176, 239, 30, 74,
  188, 2, 191, 158, 247, 228, 221, 217, 129, 236, 237, 54, 188, 242, 221, 235, 27, 32, 6, 17,
  246, 11, 194, 32, 218, 246, 23, 227, 35, 251, 65, 76, 20, 204, 201, 252, 0, 0, 0, 0,
  0, 0, 0, 0, 0, 0, 0, 0, 0, 0, 0, 0, 0, 0, 0, 0, 0, 0, 0, 0,
  0, 0, 0, 0, 0, 0, 0, 0, 0, 0, 0, 0, 0, 0, 0, 0, 0, 0, 0, 0,
  0, 0, 0, 0, 0, 0, 0, 0, 0, 0, 0, 0, 0, 0, 0, 0, 0, 0, 0, 0,
  255, 29, 3, 8, 6, 12, 6, 5, 2, 2, 2, 248, 5, 241, 2, 17, 248, 6, 253, 2,
  240, 14, 232, 1, 11, 14, 11, 29, 0, 254, 249, 255, 254, 248, 10, 239, 236, 15, 227, 252,
  251, 237, 249, 23, 12, 28, 47, 247, 4, 22, 249, 10, 227, 26, 243, 236, 20, 242, 12, 28,
  12, 235, 249, 8, 250, 14, 8, 20, 222, 253, 8, 227, 46, 35, 242, 129, 209, 219, 248, 0,
  40, 15, 15, 17, 203, 233, 31, 12, 31, 241, 31, 3, 205, 3, 207, 195, 4, 22, 240, 232,
  226, 196, 1, 245, 250, 8, 2, 10, 9, 211, 22, 243, 18, 242, 234, 27, 20, 245, 239, 212,
  4, 242, 25, 11, 33, 226, 255, 255, 0, 0, 0, 0, 0, 0, 0, 0, 0, 0, 0, 0,
  0, 0, 0, 0, 0, 0, 0, 0, 0, 0, 0, 0, 0, 0, 0, 0, 0, 0, 0, 0,
  0, 0, 0, 0, 0, 0, 0, 0, 0, 0, 0, 0, 0, 0, 0, 0, 0, 0, 0, 0,
  0, 0, 0, 0, 0, 0, 0, 0, 0, 0, 0, 0, 30, 13, 9, 0, 28, 0, 255, 251,
  249, 26, 255, 240, 24, 242, 35, 13, 4, 215, 221, 230, 7, 8, 184, 3, 12, 212, 219, 250,
  18, 3, 7, 253, 27, 232, 247, 217, 201, 23, 240, 238, 247, 6, 212, 22, 250, 253, 14, 4,
  10, 238, 20, 50, 1, 71, 222, 235, 255, 22, 239, 253, 249, 11, 45, 252, 8, 36, 4, 17,
  205, 237, 230, 224, 247, 224, 1, 24, 255, 224, 230, 12, 11, 244, 240, 246, 26, 237, 228, 245,
  241, 9, 234, 250, 51, 17, 24, 2, 194, 3, 232, 25, 240, 10, 3, 233, 10, 235, 221, 11,
  223, 247, 12, 42, 26, 175, 16, 235, 204, 127, 240, 249, 9, 236, 45, 3, 255, 235, 238, 17,
  0, 0, 0, 0, 0, 0, 0, 0, 0, 0, 0, 0, 0, 0, 0, 0, 0, 0, 0, 0,
  0, 0, 0, 0, 0, 0, 0, 0, 0, 0, 0, 0, 0, 0, 0, 0, 0, 0, 0, 0,
  0, 0, 0, 0, 0, 0, 0, 0, 0, 0, 0, 0, 0, 0, 0, 0, 0, 0, 0, 0,
  0, 0, 0, 0, 26, 245, 56, 36, 15, 28, 37, 24, 19, 5, 20, 227, 253, 228, 247, 230,
  10, 253, 243, 9, 255, 214, 216, 232, 13, 246, 25, 252, 43, 47, 243, 224, 238, 234, 237, 254,
  244, 250, 228, 7, 244, 255, 241, 8, 2, 3, 23, 8, 249, 9, 19, 52, 228, 237, 239, 19,
  247, 225, 11, 220, 238, 12, 232, 32, 48, 214, 57, 127, 4, 58, 78, 68, 245, 55, 67, 140,
  200, 244, 37, 201, 92, 218, 220, 3, 167, 195, 181, 46, 23, 18, 103, 49, 6, 58, 219, 207,
  213, 238, 241, 228, 134, 235, 202, 32, 209, 19, 253, 63, 67, 72, 10, 19, 240, 8, 253, 214,
  159, 18, 246, 246, 29, 192, 253, 202, 29, 31, 192, 26, 0, 0, 0, 0, 0, 0, 0, 0,
  0, 0, 0, 0, 0, 0, 0, 0, 0, 0, 0, 0, 0, 0, 0, 0, 0, 0, 0, 0,
  0, 0, 0, 0, 0, 0, 0, 0, 0, 0, 0, 0, 0, 0, 0, 0, 0, 0, 0, 0,
  0, 0, 0, 0, 0, 0, 0, 0, 0, 0, 0, 0, 0, 0, 0, 0, 246, 23, 36, 244,
  8, 25, 240, 2, 4, 20, 31, 206, 38, 243, 22, 28, 2, 7, 19, 28, 252, 165, 210, 11,
  4, 202, 5, 3, 6, 2, 214, 11, 232, 218, 244, 233, 247, 24, 220, 248, 243, 127, 247, 47,
  244, 241, 13, 12, 212, 248, 30, 218, 222, 14, 253, 8, 5, 8, 244, 16, 244, 250, 223, 248,
  254, 21, 253, 223, 253, 253, 217, 248, 212, 245, 216, 231, 62, 232, 22, 253, 251, 236, 26, 223,
  12, 5, 181, 190, 212, 137, 214, 248, 254, 210, 205, 7, 232, 233, 40, 39, 44, 245, 218, 198,
  61, 20, 211, 66, 228, 216, 94, 239, 240, 217, 2, 196, 15, 62, 178, 19, 220, 223, 73, 240,
  245, 232, 196, 12, 0, 0, 0, 0, 0, 0, 0, 0, 0, 0, 0, 0, 0, 0, 0, 0,
  0, 0, 0, 0, 0, 0, 0, 0, 0, 0, 0, 0, 0, 0, 0, 0, 0, 0, 0, 0,
  0, 0, 0, 0, 0, 0, 0, 0, 0, 0, 0, 0, 0, 0, 0, 0, 0, 0, 0, 0,
  0, 0, 0, 0, 0, 0, 0, 0, 33, 34, 61, 108, 18, 250, 57, 17, 48, 84, 240, 6,
  245, 237, 8, 230, 102, 225, 10, 168, 203, 238, 129, 51, 23, 17, 230, 25, 43, 45, 190, 193,
  245, 225, 201, 212, 179, 44, 207, 27, 203, 202, 244, 246, 23, 62, 42, 195, 251, 251, 193, 248,
  230, 20, 51, 164, 70, 210, 255, 57, 243, 190, 27, 20, 204, 6, 0, 38, 242, 138, 203, 233,
  34, 8, 8, 249, 36, 234, 5, 19, 232, 209, 80, 4, 26, 225, 23, 75, 237, 195, 20, 232,
  106, 236, 31, 44, 30, 247, 11, 33, 65, 252, 246, 231, 21, 66, 222, 248, 235, 226, 179, 220,
  243, 105, 244, 22, 91, 243, 197, 245, 23, 223, 35, 171, 216, 41, 102, 254, 0, 0, 0, 0,
  0, 0, 0, 0, 0, 0, 0, 0, 0, 0, 0, 0, 0, 0, 0, 0, 0, 0, 0, 0,
  0, 0, 0, 0, 0, 0, 0, 0, 0, 0, 0, 0, 0, 0, 0, 0, 0, 0, 0, 0,
  0, 0, 0, 0, 0, 0, 0, 0, 0, 0, 0, 0, 0, 0, 0, 0, 0, 0, 0, 0,
  214, 44, 215, 12, 165, 53, 23, 56, 249, 217, 210, 234, 8, 18, 30, 237, 194, 236, 238, 236,
  246, 232, 215, 23, 19, 247, 212, 5, 220, 243, 64, 213, 5, 225, 23, 250, 2, 238, 58, 33,
  25, 245, 3, 249, 255, 46, 4, 209, 246, 61, 1, 218, 246, 227, 15, 245, 243, 249, 23, 0,
  252, 3, 245, 11, 133, 27, 187, 11, 10, 29, 254, 171, 249, 48, 34, 238, 7, 44, 234, 14,
  238, 32, 252, 5, 231, 106, 5, 21, 7, 228, 129, 177, 200, 7, 27, 13, 220, 219, 251, 254,
  46, 197, 23, 247, 12, 231, 33, 242, 253, 229, 42, 6, 61, 255, 73, 228, 55, 206, 237, 76,
  220, 251, 0, 83, 235, 204, 255, 234, 0, 0, 0, 0, 0, 0, 0, 0, 0, 0, 0, 0,
  0, 0, 0, 0, 0, 0, 0, 0, 0, 0, 0, 0, 0, 0, 0, 0, 0, 0, 0, 0,
  0, 0, 0, 0, 0, 0, 0, 0, 0, 0, 0, 0, 0, 0, 0, 0, 0, 0, 0, 0,
  0, 0, 0, 0, 0, 0, 0, 0, 0, 0, 0, 0, 246, 108, 81, 224, 72, 238, 67, 0,
  231, 196, 242, 210, 95, 215, 218, 233, 5, 94, 129, 166, 137, 151, 57, 41, 190, 230, 205, 57,
  18, 60, 172, 4, 241, 47, 62, 161, 233, 220, 207, 242, 192, 56, 218, 237, 229, 44, 201, 50,
  34, 14, 209, 179, 244, 164, 21, 0, 255, 100, 234, 39, 66, 149, 228, 211, 244, 27, 56, 196,
  62, 89, 28, 9, 163, 50, 27, 207, 27, 19, 41, 19, 55, 3, 14, 53, 233, 39, 5, 237,
  148, 230, 220, 53, 163, 241, 166, 88, 230, 241, 215, 224, 57, 46, 66, 116, 3, 171, 8, 44,
  221, 19, 243, 37, 93, 4, 68, 206, 60, 4, 33, 57, 242, 234, 159, 208, 33, 23, 27, 241,
  0, 0, 0, 0, 0, 0, 0, 0, 0, 0, 0, 0, 0, 0, 0, 0, 0, 0, 0, 0,
  0, 0, 0, 0, 0, 0, 0, 0, 0, 0, 0, 0, 0, 0, 0, 0, 0, 0, 0, 0,
  0, 0, 0, 0, 0, 0, 0, 0, 0, 0, 0, 0, 0, 0, 0, 0, 0, 0, 0, 0,
  0, 0, 0, 0, 241, 235, 41, 17, 246, 5, 10, 1, 11, 12, 15, 1, 255, 243, 230, 1,
  31, 3, 248, 245, 13, 239, 226, 31, 252, 251, 253, 16, 240, 39, 224, 245, 0, 12, 6, 246,
  1, 248, 10, 16, 12, 246, 3, 6, 236, 233, 233, 17, 15, 18, 237, 0, 245, 250, 2, 4,
  3, 7, 235, 246, 31, 7, 249, 2, 9, 18, 42, 11, 1, 2, 28, 238, 59, 75, 7, 129,
  239, 228, 7, 254, 19, 8, 252, 15, 12, 218, 245, 13, 23, 9, 7, 41, 177, 33, 178, 214,
  248, 0, 245, 188, 198, 42, 51, 34, 2, 41, 13, 248, 252, 242, 251, 3, 30, 224, 195, 45,
  19, 17, 25, 238, 249, 251, 70, 224, 242, 217, 198, 235, 0, 0, 0, 0, 0, 0, 0, 0,
  0, 0, 0, 0, 0, 0, 0, 0, 0, 0, 0, 0, 0, 0, 0, 0, 0, 0, 0, 0,
  0, 0, 0, 0, 0, 0, 0, 0, 0, 0, 0, 0, 0, 0, 0, 0, 0, 0, 0, 0,
  0, 0, 0, 0, 0, 0, 0, 0, 0, 0, 0, 0, 0, 0, 0, 0, 189, 201, 225, 222,
  26, 255, 227, 39, 221, 202, 194, 25, 47, 6, 234, 6, 249, 210, 206, 184, 219, 160, 226, 52,
  241, 45, 5, 5, 234, 200, 21, 6, 185, 22, 22, 247, 2, 190, 230, 60, 40, 92, 252, 5,
  219, 212, 61, 229, 10, 178, 232, 17, 32, 242, 139, 215, 16, 80, 217, 25, 4, 247, 19, 36,
  17, 176, 65, 199, 244, 220, 210, 34, 217, 188, 9, 66, 47, 227, 27, 12, 27, 245, 229, 209,
  24, 107, 194, 192, 4, 85, 249, 29, 127, 214, 19, 227, 210, 232, 222, 55, 73, 251, 20, 219,
  246, 122, 210, 185, 241, 217, 7, 6, 247, 219, 27, 221, 49, 191, 20, 75, 26, 240, 34, 42,
  212, 75, 227, 32, 0, 0, 0, 0, 0, 0, 0, 0, 0, 0, 0, 0, 0, 0, 0, 0,
  0, 0, 0, 0, 0, 0, 0, 0, 0, 0, 0, 0, 0, 0, 0, 0, 0, 0, 0, 0,
  0, 0, 0, 0, 0, 0, 0, 0, 0, 0, 0, 0, 0, 0, 0, 0, 0, 0, 0, 0,
  0, 0, 0, 0, 0, 0, 0, 0, 14, 23, 2, 101, 78, 217, 233, 63, 74, 202, 160, 201,
  39, 241, 67, 186, 213, 18, 7, 73, 75, 31, 64, 154, 26, 241, 54, 236, 225, 22, 224, 245,
  221, 209, 194, 214, 203, 161, 207, 238, 207, 228, 228, 249, 239, 21, 255, 33, 234, 79, 26, 23,
  235, 220, 10, 42, 4, 14, 49, 48, 226, 247, 57, 32, 229, 203, 178, 241, 49, 48, 249, 164,
  48, 171, 161, 214, 115, 231, 246, 4, 2, 35, 215, 220, 116, 252, 2, 21, 220, 127, 9, 210,
  0, 15, 7, 116, 180, 36, 194, 52, 10, 198, 254, 252, 214, 212, 225, 27, 244, 30, 167, 233,
  16, 112, 67, 226, 7, 73, 194, 55, 240, 21, 168, 244, 12, 242, 27, 5, 0, 0, 0, 0,
  0, 0, 0, 0, 0, 0, 0, 0, 0, 0, 0, 0, 0, 0, 0, 0, 0, 0, 0, 0,
  0, 0, 0, 0, 0, 0, 0, 0, 0, 0, 0, 0, 0, 0, 0, 0, 0, 0, 0, 0,
  0, 0, 0, 0, 0, 0, 0, 0, 0, 0, 0, 0, 0, 0, 0, 0, 0, 0, 0, 0,
  49, 199, 100, 66, 230, 48, 246, 27, 37, 48, 129, 244, 191, 180, 33, 236, 79, 174, 15, 243,
  3, 222, 240, 229, 71, 214, 61, 40, 10, 19, 205, 239, 31, 1, 236, 37, 219, 10, 215, 3,
  6, 22, 23, 255, 229, 249, 234, 33, 239, 51, 213, 3, 148, 183, 27, 177, 50, 5, 0, 243,
  244, 247, 237, 9, 50, 236, 75, 125, 216, 16, 24, 40, 9, 38, 50, 222, 212, 174, 17, 201,
  62, 190, 232, 33, 212, 230, 249, 234, 51, 94, 51, 38, 242, 84, 216, 214, 9, 1, 228, 5,
  200, 228, 16, 30, 202, 61, 21, 47, 233, 59, 208, 20, 35, 31, 183, 36, 206, 228, 49, 230,
  26, 15, 114, 219, 12, 7, 17, 23, 0, 0, 0, 0, 0, 0, 0, 0, 0, 0, 0, 0,
  0, 0, 0, 0, 0, 0, 0, 0, 0, 0, 0, 0, 0, 0, 0, 0, 0, 0, 0, 0,
  0, 0, 0, 0, 0, 0, 0, 0, 0, 0, 0, 0, 0, 0, 0, 0, 0, 0, 0, 0,
  0, 0, 0, 0, 0, 0, 0, 0, 0, 0, 0, 0, 32, 12, 237, 228, 0, 10, 255, 253,
  5, 94, 250, 242, 71, 4, 1, 251, 1, 240, 250, 247, 247, 243, 192, 222, 207, 17, 13, 224,
  247, 228, 0, 227, 228, 229, 232, 48, 182, 215, 251, 250, 12, 0, 254, 244, 239, 10, 242, 250,
  239, 233, 251, 239, 240, 247, 234, 235, 21, 229, 245, 231, 17, 22, 3, 2, 222, 224, 229, 233,
  221, 199, 16, 231, 33, 227, 226, 6, 245, 217, 28, 38, 241, 31, 219, 216, 15, 5, 35, 169,
  189, 254, 203, 237, 3, 31, 218, 231, 231, 48, 232, 197, 209, 231, 47, 104, 237, 0, 219, 210,
  237, 127, 52, 212, 14, 217, 177, 36, 39, 250, 250, 28, 0, 28, 13, 19, 238, 0, 224, 222,
  0, 0, 0, 0, 0, 0, 0, 0, 0, 0, 0, 0, 0, 0, 0, 0, 0, 0, 0, 0,
  0, 0, 0, 0, 0, 0, 0, 0, 0, 0, 0, 0, 0, 0, 0, 0, 0, 0, 0, 0,
  0, 0, 0, 0, 0, 0, 0, 0, 0, 0, 0, 0, 0, 0, 0, 0, 0, 0, 0, 0,
  0, 0, 0, 0, 20, 221, 193, 239, 18, 255, 12, 222, 236, 40, 218, 237, 196, 68, 237, 0,
  24, 242, 215, 169, 243, 75, 231, 19, 211, 40, 30, 238, 200, 231, 87, 3, 15, 35, 55, 25,
  7, 14, 236, 242, 254, 247, 5, 54, 242, 75, 186, 246, 22, 0, 253, 88, 15, 92, 189, 78,
  9, 170, 29, 249, 244, 247, 36, 7, 231, 79, 202, 217, 20, 159, 189, 1, 239, 196, 213, 14,
  192, 23, 225, 233, 20, 34, 240, 19, 36, 250, 113, 179, 15, 227, 246, 193, 250, 211, 70, 26,
  204, 0, 44, 247, 236, 56, 35, 220, 40, 36, 240, 250, 214, 28, 129, 241, 217, 56, 100, 216,
  24, 111, 179, 76, 219, 3, 216, 239, 6, 237, 78, 254, 0, 0, 0, 0, 0, 0, 0, 0,
  0, 0, 0, 0, 0, 0, 0, 0, 0, 0, 0, 0, 0, 0, 0, 0, 0, 0, 0, 0,
  0, 0, 0, 0, 0, 0, 0, 0, 0, 0, 0, 0, 0, 0, 0, 0, 0, 0, 0, 0,
  0, 0, 0, 0, 0, 0, 0, 0, 0, 0, 0, 0, 0, 0, 0, 0, 238, 234, 214, 4,
  7, 209, 14, 218, 43, 23, 34, 235, 215, 242, 17, 198, 0, 244, 12, 66, 229, 240, 187, 230,
  194, 32, 11, 27, 39, 23, 36, 239, 19, 223, 227, 246, 222, 23, 237, 255, 21, 253, 183, 78,
  253, 228, 14, 214, 225, 39, 23, 216, 33, 221, 222, 217, 246, 201, 240, 225, 20, 188, 51, 11,
  219, 243, 158, 82, 221, 201, 244, 129, 28, 240, 9, 248, 11, 253, 228, 231, 196, 12, 7, 36,
  254, 224, 241, 7, 254, 249, 241, 251, 65, 4, 60, 240, 39, 230, 244, 234, 231, 231, 10, 205,
  15, 45, 201, 60, 251, 213, 56, 219, 188, 11, 4, 240, 42, 78, 11, 214, 22, 206, 37, 219,
  207, 240, 253, 222, 0, 0, 0, 0, 0, 0, 0, 0, 0, 0, 0, 0, 0, 0, 0, 0,
  0, 0, 0, 0, 0, 0, 0, 0, 0, 0, 0, 0, 0, 0, 0, 0, 0, 0, 0, 0,
  0, 0, 0, 0, 0, 0, 0, 0, 0, 0, 0, 0, 0, 0, 0, 0, 0, 0, 0, 0,
  0, 0, 0, 0, 0, 0, 0, 0, 25, 27, 105, 17, 21, 32, 229, 122, 17, 245, 17, 191,
  232, 35, 13, 245, 251, 242, 8, 196, 210, 52, 25, 54, 226, 122, 3, 251, 212, 188, 251, 242,
  35, 14, 46, 21, 40, 25, 127, 208, 0, 181, 253, 199, 229, 251, 181, 0, 192, 215, 231, 254,
  250, 25, 70, 40, 231, 41, 35, 208, 25, 254, 178, 235, 251, 154, 127, 127, 43, 75, 25, 68,
